{
  "version": "1.0",
  "truncation": null,
  "padding": null,
  "added_tokens": [
    {
      "id": 0,
      "content": "<unk>",
      "single_word": false,
      "lstrip": false,
      "rstrip": false,
      "normalized": false,
      "special": true
    },
    {
      "id": 1,
      "content": "<pad>",
      "single_word": false,
      "lstrip": false,
      "rstrip": false,
      "normalized": false,
      "special": true
    },
    {
      "id": 2,
      "content": "<s>",
      "single_word": false,
      "lstrip": false,
      "rstrip": false,
      "normalized": false,
      "special": true
    },
    {
      "id": 3,
      "content": "</s>",
      "single_word": false,
      "lstrip": false,
      "rstrip": false,
      "normalized": false,
      "special": true
    }
  ],
  "normalizer": null,
  "pre_tokenizer": {
    "type": "Whitespace"
  },
  "post_processor": null,
  "decoder": null,
  "model": {
    "type": "BPE",
    "dropout": null,
    "unk_token": "<unk>",
    "continuing_subword_prefix": null,
    "end_of_word_suffix": null,
    "fuse_unk": false,
    "byte_fallback": false,
    "ignore_merges": false,
    "vocab": {
      "<unk>": 0,
      "<pad>": 1,
      "<s>": 2,
      "</s>": 3,
      "!": 4,
      "\"": 5,
      "#": 6,
      "$": 7,
      "%": 8,
      "&": 9,
      "'": 10,
      "(": 11,
      ")": 12,
      "*": 13,
      "+": 14,
      ",": 15,
      "-": 16,
      ".": 17,
      "/": 18,
      "0": 19,
      "1": 20,
      "2": 21,
      "3": 22,
      "4": 23,
      "5": 24,
      "6": 25,
      "7": 26,
      "8": 27,
      "9": 28,
      ":": 29,
      ";": 30,
      "<": 31,
      "=": 32,
      ">": 33,
      "?": 34,
      "@": 35,
      "A": 36,
      "B": 37,
      "C": 38,
      "D": 39,
      "E": 40,
      "F": 41,
      "G": 42,
      "H": 43,
      "I": 44,
      "J": 45,
      "K": 46,
      "L": 47,
      "M": 48,
      "N": 49,
      "O": 50,
      "P": 51,
      "Q": 52,
      "R": 53,
      "S": 54,
      "T": 55,
      "U": 56,
      "V": 57,
      "W": 58,
      "X": 59,
      "Y": 60,
      "Z": 61,
      "[": 62,
      "\\": 63,
      "]": 64,
      "^": 65,
      "_": 66,
      "`": 67,
      "a": 68,
      "b": 69,
      "c": 70,
      "d": 71,
      "e": 72,
      "f": 73,
      "g": 74,
      "h": 75,
      "i": 76,
      "j": 77,
      "k": 78,
      "l": 79,
      "m": 80,
      "n": 81,
      "o": 82,
      "p": 83,
      "q": 84,
      "r": 85,
      "s": 86,
      "t": 87,
      "u": 88,
      "v": 89,
      "w": 90,
      "x": 91,
      "y": 92,
      "z": 93,
      "{": 94,
      "}": 95,
      "~": 96,
      "": 97,
      "": 98,
      "": 99,
      "": 100,
      "": 101,
      "": 102,
      "": 103,
      "": 104,
      "": 105,
      "¡": 106,
      "¢": 107,
      "£": 108,
      "¤": 109,
      "¥": 110,
      "¦": 111,
      "§": 112,
      "¨": 113,
      "©": 114,
      "ª": 115,
      "«": 116,
      "¬": 117,
      "­": 118,
      "®": 119,
      "¯": 120,
      "°": 121,
      "±": 122,
      "²": 123,
      "³": 124,
      "´": 125,
      "µ": 126,
      "¶": 127,
      "·": 128,
      "¸": 129,
      "¹": 130,
      "º": 131,
      "»": 132,
      "¼": 133,
      "½": 134,
      "¾": 135,
      "¿": 136,
      "À": 137,
      "Á": 138,
      "Â": 139,
      "Ã": 140,
      "Ä": 141,
      "Å": 142,
      "Æ": 143,
      "Ç": 144,
      "È": 145,
      "É": 146,
      "Ì": 147,
      "Í": 148,
      "Î": 149,
      "Ï": 150,
      "Ð": 151,
      "Ñ": 152,
      "Ò": 153,
      "Ó": 154,
      "Ô": 155,
      "Õ": 156,
      "Ö": 157,
      "×": 158,
      "Ø": 159,
      "Ú": 160,
      "Ü": 161,
      "ß": 162,
      "à": 163,
      "á": 164,
      "â": 165,
      "ã": 166,
      "ä": 167,
      "å": 168,
      "æ": 169,
      "ç": 170,
      "è": 171,
      "é": 172,
      "ê": 173,
      "ë": 174,
      "ì": 175,
      "í": 176,
      "î": 177,
      "ï": 178,
      "ð": 179,
      "ñ": 180,
      "ò": 181,
      "ó": 182,
      "ô": 183,
      "õ": 184,
      "ö": 185,
      "÷": 186,
      "ø": 187,
      "ù": 188,
      "ú": 189,
      "û": 190,
      "ü": 191,
      "ý": 192,
      "þ": 193,
      "ÿ": 194,
      "Ā": 195,
      "ā": 196,
      "ă": 197,
      "Ą": 198,
      "ą": 199,
      "Ć": 200,
      "ć": 201,
      "Ċ": 202,
      "Č": 203,
      "č": 204,
      "Ď": 205,
      "ď": 206,
      "Đ": 207,
      "đ": 208,
      "Ē": 209,
      "ē": 210,
      "ĕ": 211,
      "Ė": 212,
      "ė": 213,
      "ě": 214,
      "Ĝ": 215,
      "ğ": 216,
      "Ġ": 217,
      "ġ": 218,
      "ģ": 219,
      "Ĥ": 220,
      "Ī": 221,
      "ī": 222,
      "Ĭ": 223,
      "İ": 224,
      "ı": 225,
      "Ĳ": 226,
      "Ĵ": 227,
      "ĵ": 228,
      "ķ": 229,
      "ĺ": 230,
      "ļ": 231,
      "Ľ": 232,
      "ľ": 233,
      "Ŀ": 234,
      "ł": 235,
      "ń": 236,
      "ň": 237,
      "ō": 238,
      "ŏ": 239,
      "ő": 240,
      "Œ": 241,
      "œ": 242,
      "Ŕ": 243,
      "ř": 244,
      "ś": 245,
      "Ş": 246,
      "ş": 247,
      "Š": 248,
      "š": 249,
      "ţ": 250,
      "Ť": 251,
      "ū": 252,
      "ű": 253,
      "ų": 254,
      "ŵ": 255,
      "ŷ": 256,
      "Ÿ": 257,
      "ź": 258,
      "ż": 259,
      "Ž": 260,
      "ž": 261,
      "ƒ": 262,
      "ư": 263,
      "ƴ": 264,
      "Ʒ": 265,
      "Ƽ": 266,
      "ƽ": 267,
      "ǂ": 268,
      "ǎ": 269,
      "ǐ": 270,
      "ǒ": 271,
      "ǖ": 272,
      "ǘ": 273,
      "ǜ": 274,
      "ǣ": 275,
      "ǰ": 276,
      "ǳ": 277,
      "ǿ": 278,
      "Ȏ": 279,
      "ȏ": 280,
      "ȧ": 281,
      "ȫ": 282,
      "Ȼ": 283,
      "ȼ": 284,
      "Ƚ": 285,
      "Ʉ": 286,
      "Ɋ": 287,
      "ɏ": 288,
      "ɑ": 289,
      "ɒ": 290,
      "ɡ": 291,
      "ɹ": 292,
      "ʇ": 293,
      "ʊ": 294,
      "ʔ": 295,
      "ʖ": 296,
      "ʜ": 297,
      "ʠ": 298,
      "ʣ": 299,
      "ʱ": 300,
      "ʵ": 301,
      "ʶ": 302,
      "ʷ": 303,
      "ʹ": 304,
      "ʼ": 305,
      "ʽ": 306,
      "ˆ": 307,
      "ˊ": 308,
      "ˋ": 309,
      "ː": 310,
      "˖": 311,
      "˙": 312,
      "˚": 313,
      "˜": 314,
      "ˠ": 315,
      "˳": 316,
      "˵": 317,
      "˹": 318,
      "́": 319,
      "̎": 320,
      "̐": 321,
      "̡": 322,
      "̢": 323,
      "̨": 324,
      "̬": 325,
      "̮": 326,
      "̳": 327,
      "̽": 328,
      "͠": 329,
      "͢": 330,
      "ͳ": 331,
      "ʹ": 332,
      "ͷ": 333,
      ";": 334,
      "Ϳ": 335,
      "΄": 336,
      "Ά": 337,
      "·": 338,
      "Ή": 339,
      "Α": 340,
      "Β": 341,
      "Γ": 342,
      "Ε": 343,
      "Η": 344,
      "Θ": 345,
      "Ι": 346,
      "Κ": 347,
      "Λ": 348,
      "Μ": 349,
      "Ν": 350,
      "Ξ": 351,
      "Ο": 352,
      "Π": 353,
      "Ρ": 354,
      "Σ": 355,
      "Τ": 356,
      "Υ": 357,
      "Ψ": 358,
      "Ω": 359,
      "Ϊ": 360,
      "ί": 361,
      "α": 362,
      "β": 363,
      "γ": 364,
      "δ": 365,
      "ε": 366,
      "η": 367,
      "θ": 368,
      "ι": 369,
      "κ": 370,
      "λ": 371,
      "μ": 372,
      "ν": 373,
      "ο": 374,
      "π": 375,
      "ρ": 376,
      "ς": 377,
      "σ": 378,
      "τ": 379,
      "φ": 380,
      "ψ": 381,
      "ω": 382,
      "ό": 383,
      "ϔ": 384,
      "ϖ": 385,
      "Ϟ": 386,
      "ϟ": 387,
      "Ϣ": 388,
      "Ϭ": 389,
      "ϵ": 390,
      "Ϻ": 391,
      "ϻ": 392,
      "Ͽ": 393,
      "Ё": 394,
      "Ђ": 395,
      "Њ": 396,
      "Ѝ": 397,
      "Ў": 398,
      "А": 399,
      "Б": 400,
      "В": 401,
      "Г": 402,
      "Ж": 403,
      "З": 404,
      "И": 405,
      "К": 406,
      "М": 407,
      "Н": 408,
      "О": 409,
      "П": 410,
      "Р": 411,
      "С": 412,
      "Т": 413,
      "Ф": 414,
      "Х": 415,
      "Ч": 416,
      "Ш": 417,
      "Щ": 418,
      "Ы": 419,
      "Ь": 420,
      "Э": 421,
      "Ю": 422,
      "Я": 423,
      "а": 424,
      "б": 425,
      "в": 426,
      "г": 427,
      "д": 428,
      "е": 429,
      "ж": 430,
      "з": 431,
      "и": 432,
      "й": 433,
      "к": 434,
      "л": 435,
      "м": 436,
      "н": 437,
      "о": 438,
      "п": 439,
      "р": 440,
      "с": 441,
      "т": 442,
      "у": 443,
      "ф": 444,
      "х": 445,
      "ц": 446,
      "ч": 447,
      "ш": 448,
      "щ": 449,
      "ъ": 450,
      "ь": 451,
      "э": 452,
      "ю": 453,
      "є": 454,
      "ї": 455,
      "ѹ": 456,
      "Ҁ": 457,
      "҆": 458,
      "ґ": 459,
      "Ҕ": 460,
      "Ң": 461,
      "ҥ": 462,
      "Ҫ": 463,
      "ҫ": 464,
      "Ҳ": 465,
      "ҳ": 466,
      "һ": 467,
      "ҽ": 468,
      "Ӄ": 469,
      "ӄ": 470,
      "ӈ": 471,
      "Ӊ": 472,
      "Ӑ": 473,
      "Ӕ": 474,
      "Ӛ": 475,
      "Ӡ": 476,
      "ӡ": 477,
      "ӫ": 478,
      "ӯ": 479,
      "ӷ": 480,
      "Ԃ": 481,
      "Ԋ": 482,
      "ԋ": 483,
      "ԏ": 484,
      "Ԕ": 485,
      "Ԛ": 486,
      "Ԡ": 487,
      "Ԥ": 488,
      "Ԫ": 489,
      "Դ": 490,
      "Ե": 491,
      "Լ": 492,
      "Ձ": 493,
      "Ղ": 494,
      "բ": 495,
      "յ": 496,
      "չ": 497,
      "ց": 498,
      "փ": 499,
      "ֆ": 500,
      "֐": 501,
      "֘": 502,
      "֡": 503,
      "֣": 504,
      "֧": 505,
      "֪": 506,
      "֮": 507,
      "ֱ": 508,
      "ֲ": 509,
      "ָ": 510,
      "ֺ": 511,
      "ּ": 512,
      "׊": 513,
      "ד": 514,
      "ה": 515,
      "ו": 516,
      "ע": 517,
      "ש": 518,
      "ת": 519,
      "װ": 520,
      "׳": 521,
      "׷": 522,
      "؊": 523,
      "،": 524,
      "ؐ": 525,
      "ؓ": 526,
      "ؖ": 527,
      "؟": 528,
      "ؠ": 529,
      "ا": 530,
      "ت": 531,
      "ج": 532,
      "ر": 533,
      "غ": 534,
      "ـ": 535,
      "ل": 536,
      "ه": 537,
      "ً": 538,
      "َ": 539,
      "ُ": 540,
      "ِ": 541,
      "ّ": 542,
      "ْ": 543,
      "ڔ": 544,
      "ڠ": 545,
      "ڤ": 546,
      "ڱ": 547,
      "ڼ": 548,
      "۰": 549,
      "܂": 550,
      "ܷ": 551,
      "ݖ": 552,
      "ݣ": 553,
      "ݿ": 554,
      "ߣ": 555,
      "߰": 556,
      "ँ": 557,
      "ं": 558,
      "अ": 559,
      "आ": 560,
      "इ": 561,
      "ई": 562,
      "उ": 563,
      "ऊ": 564,
      "ऋ": 565,
      "ए": 566,
      "ऐ": 567,
      "ओ": 568,
      "औ": 569,
      "क": 570,
      "ख": 571,
      "ग": 572,
      "घ": 573,
      "च": 574,
      "छ": 575,
      "ज": 576,
      "झ": 577,
      "ञ": 578,
      "ट": 579,
      "ठ": 580,
      "ड": 581,
      "ढ": 582,
      "ण": 583,
      "त": 584,
      "थ": 585,
      "द": 586,
      "ध": 587,
      "न": 588,
      "प": 589,
      "फ": 590,
      "ब": 591,
      "भ": 592,
      "म": 593,
      "य": 594,
      "र": 595,
      "ल": 596,
      "व": 597,
      "श": 598,
      "ष": 599,
      "स": 600,
      "ह": 601,
      "़": 602,
      "ा": 603,
      "ि": 604,
      "ी": 605,
      "ु": 606,
      "ू": 607,
      "ृ": 608,
      "े": 609,
      "ै": 610,
      "ॉ": 611,
      "ो": 612,
      "ौ": 613,
      "्": 614,
      "।": 615,
      "๘": 616,
      "ဪ": 617,
      "ါ": 618,
      "Ⴗ": 619,
      "Ⴞ": 620,
      "ᆼ": 621,
      "ኸ": 622,
      "ኾ": 623,
      "Ἧ": 624,
      "​": 625,
      "‍": 626,
      "‎": 627,
      "‐": 628,
      "‒": 629,
      "–": 630,
      "—": 631,
      "―": 632,
      "‘": 633,
      "’": 634,
      "‚": 635,
      "“": 636,
      "”": 637,
      "„": 638,
      "‟": 639,
      "†": 640,
      "‡": 641,
      "•": 642,
      "․": 643,
      "…": 644,
      "‧": 645,
      "‰": 646,
      "′": 647,
      "″": 648,
      "‵": 649,
      "‹": 650,
      "※": 651,
      "⁄": 652,
      "⁪": 653,
      "₤": 654,
      "€": 655,
      "℃": 656,
      "℉": 657,
      "№": 658,
      "™": 659,
      "Ⅰ": 660,
      "Ⅱ": 661,
      "Ⅲ": 662,
      "Ⅴ": 663,
      "ⅳ": 664,
      "→": 665,
      "↖": 666,
      "∑": 667,
      "−": 668,
      "∕": 669,
      "∗": 670,
      "∘": 671,
      "∙": 672,
      "∮": 673,
      "∵": 674,
      "∶": 675,
      "∼": 676,
      "≤": 677,
      "≥": 678,
      "≦": 679,
      "≧": 680,
      "⊳": 681,
      "⊿": 682,
      "⋅": 683,
      "⋯": 684,
      "⋹": 685,
      "⌒": 686,
      "⎄": 687,
      "⎊": 688,
      "␩": 689,
      "①": 690,
      "②": 691,
      "③": 692,
      "④": 693,
      "⑴": 694,
      "⑵": 695,
      "⑶": 696,
      "⑷": 697,
      "⑸": 698,
      "⑹": 699,
      "⑺": 700,
      "⑻": 701,
      "⑼": 702,
      "⑽": 703,
      "⑾": 704,
      "⑿": 705,
      "⒀": 706,
      "⒁": 707,
      "⒂": 708,
      "⒃": 709,
      "⒄": 710,
      "⒅": 711,
      "⒆": 712,
      "⒇": 713,
      "─": 714,
      "━": 715,
      "│": 716,
      "┄": 717,
      "┅": 718,
      "┆": 719,
      "┈": 720,
      "┋": 721,
      "┍": 722,
      "┎": 723,
      "┏": 724,
      "┑": 725,
      "┕": 726,
      "┗": 727,
      "┘": 728,
      "┚": 729,
      "├": 730,
      "┠": 731,
      "┣": 732,
      "┤": 733,
      "┥": 734,
      "┦": 735,
      "┪": 736,
      "┬": 737,
      "┮": 738,
      "┯": 739,
      "┰": 740,
      "┱": 741,
      "┵": 742,
      "┶": 743,
      "┷": 744,
      "┸": 745,
      "┻": 746,
      "┾": 747,
      "┿": 748,
      "╀": 749,
      "╃": 750,
      "╆": 751,
      "╈": 752,
      "╊": 753,
      "║": 754,
      "╖": 755,
      "╝": 756,
      "╟": 757,
      "╡": 758,
      "╢": 759,
      "╣": 760,
      "╧": 761,
      "╪": 762,
      "╬": 763,
      "╭": 764,
      "╮": 765,
      "╯": 766,
      "╰": 767,
      "╱": 768,
      "╲": 769,
      "▄": 770,
      "▅": 771,
      "▆": 772,
      "■": 773,
      "□": 774,
      "▪": 775,
      "△": 776,
      "►": 777,
      "▽": 778,
      "◆": 779,
      "◊": 780,
      "○": 781,
      "◎": 782,
      "●": 783,
      "◦": 784,
      "◯": 785,
      "♦": 786,
      "♪": 787,
      "♫": 788,
      "♬": 789,
      "❑": 790,
      "➢": 791,
      "⣬": 792,
      "ⰲ": 793,
      "⼯": 794,
      "、": 795,
      "。": 796,
      "〃": 797,
      "々": 798,
      "〇": 799,
      "〈": 800,
      "〉": 801,
      "《": 802,
      "》": 803,
      "「": 804,
      "」": 805,
      "『": 806,
      "』": 807,
      "【": 808,
      "】": 809,
      "〔": 810,
      "〕": 811,
      "〖": 812,
      "〗": 813,
      "〝": 814,
      "〞": 815,
      "〡": 816,
      "〣": 817,
      "あ": 818,
      "ぃ": 819,
      "い": 820,
      "う": 821,
      "ぇ": 822,
      "え": 823,
      "ぉ": 824,
      "か": 825,
      "が": 826,
      "き": 827,
      "く": 828,
      "ぐ": 829,
      "け": 830,
      "こ": 831,
      "ご": 832,
      "さ": 833,
      "ざ": 834,
      "じ": 835,
      "す": 836,
      "ず": 837,
      "せ": 838,
      "ぜ": 839,
      "そ": 840,
      "だ": 841,
      "ち": 842,
      "っ": 843,
      "つ": 844,
      "て": 845,
      "と": 846,
      "ど": 847,
      "な": 848,
      "に": 849,
      "ね": 850,
      "の": 851,
      "は": 852,
      "ぱ": 853,
      "ひ": 854,
      "び": 855,
      "ぶ": 856,
      "ぷ": 857,
      "へ": 858,
      "ぺ": 859,
      "ほ": 860,
      "ま": 861,
      "み": 862,
      "め": 863,
      "も": 864,
      "ゃ": 865,
      "や": 866,
      "ゅ": 867,
      "ゆ": 868,
      "よ": 869,
      "ら": 870,
      "り": 871,
      "る": 872,
      "れ": 873,
      "ろ": 874,
      "ゎ": 875,
      "わ": 876,
      "ゑ": 877,
      "を": 878,
      "ん": 879,
      "゜": 880,
      "ゞ": 881,
      "ァ": 882,
      "ア": 883,
      "イ": 884,
      "ゥ": 885,
      "ウ": 886,
      "ェ": 887,
      "エ": 888,
      "オ": 889,
      "カ": 890,
      "ガ": 891,
      "キ": 892,
      "ギ": 893,
      "ケ": 894,
      "ゲ": 895,
      "ゴ": 896,
      "サ": 897,
      "ザ": 898,
      "ジ": 899,
      "ス": 900,
      "セ": 901,
      "ゼ": 902,
      "ソ": 903,
      "タ": 904,
      "ダ": 905,
      "チ": 906,
      "ッ": 907,
      "ヅ": 908,
      "デ": 909,
      "ド": 910,
      "ナ": 911,
      "ニ": 912,
      "ネ": 913,
      "ノ": 914,
      "ハ": 915,
      "バ": 916,
      "パ": 917,
      "ヒ": 918,
      "フ": 919,
      "ブ": 920,
      "ヘ": 921,
      "ホ": 922,
      "ボ": 923,
      "ミ": 924,
      "メ": 925,
      "ユ": 926,
      "ョ": 927,
      "ラ": 928,
      "ル": 929,
      "レ": 930,
      "ワ": 931,
      "ヰ": 932,
      "ン": 933,
      "ヴ": 934,
      "ヶ": 935,
      "・": 936,
      "ー": 937,
      "ヾ": 938,
      "ㄅ": 939,
      "ㄆ": 940,
      "ㄇ": 941,
      "ㄈ": 942,
      "ㄉ": 943,
      "ㄊ": 944,
      "ㄌ": 945,
      "ㄎ": 946,
      "ㄏ": 947,
      "ㄐ": 948,
      "ㄑ": 949,
      "ㄒ": 950,
      "ㄓ": 951,
      "ㄗ": 952,
      "ㄘ": 953,
      "ㄚ": 954,
      "ㄛ": 955,
      "ㄞ": 956,
      "ㄟ": 957,
      "ㄠ": 958,
      "ㄢ": 959,
      "ㄣ": 960,
      "ㄤ": 961,
      "ㄥ": 962,
      "ㄧ": 963,
      "ㄨ": 964,
      "ㄩ": 965,
      "㈠": 966,
      "㈡": 967,
      "㈢": 968,
      "㈣": 969,
      "㈤": 970,
      "㈥": 971,
      "㈦": 972,
      "㈧": 973,
      "㈨": 974,
      "㈩": 975,
      "㈱": 976,
      "㊣": 977,
      "㊽": 978,
      "㎎": 979,
      "㎝": 980,
      "㎡": 981,
      "㏄": 982,
      "㏑": 983,
      "㐍": 984,
      "㗎": 985,
      "㧐": 986,
      "㱮": 987,
      "㷻": 988,
      "䁿": 989,
      "䊽": 990,
      "䋼": 991,
      "一": 992,
      "丁": 993,
      "七": 994,
      "万": 995,
      "丈": 996,
      "三": 997,
      "上": 998,
      "下": 999,
      "不": 1000,
      "与": 1001,
      "丐": 1002,
      "丑": 1003,
      "专": 1004,
      "且": 1005,
      "世": 1006,
      "丘": 1007,
      "丙": 1008,
      "业": 1009,
      "丛": 1010,
      "东": 1011,
      "丝": 1012,
      "丞": 1013,
      "丟": 1014,
      "丢": 1015,
      "两": 1016,
      "严": 1017,
      "並": 1018,
      "丧": 1019,
      "个": 1020,
      "丫": 1021,
      "中": 1022,
      "丰": 1023,
      "串": 1024,
      "临": 1025,
      "丸": 1026,
      "丹": 1027,
      "为": 1028,
      "主": 1029,
      "丽": 1030,
      "举": 1031,
      "乂": 1032,
      "乃": 1033,
      "久": 1034,
      "么": 1035,
      "义": 1036,
      "之": 1037,
      "乌": 1038,
      "乍": 1039,
      "乎": 1040,
      "乏": 1041,
      "乐": 1042,
      "乒": 1043,
      "乓": 1044,
      "乔": 1045,
      "乖": 1046,
      "乘": 1047,
      "乙": 1048,
      "乜": 1049,
      "九": 1050,
      "乞": 1051,
      "也": 1052,
      "习": 1053,
      "乡": 1054,
      "书": 1055,
      "买": 1056,
      "乱": 1057,
      "乳": 1058,
      "乾": 1059,
      "亂": 1060,
      "了": 1061,
      "予": 1062,
      "争": 1063,
      "事": 1064,
      "二": 1065,
      "于": 1066,
      "亏": 1067,
      "云": 1068,
      "互": 1069,
      "五": 1070,
      "井": 1071,
      "亘": 1072,
      "亙": 1073,
      "亚": 1074,
      "些": 1075,
      "亞": 1076,
      "亟": 1077,
      "亡": 1078,
      "亢": 1079,
      "交": 1080,
      "亥": 1081,
      "亦": 1082,
      "产": 1083,
      "亨": 1084,
      "亩": 1085,
      "享": 1086,
      "京": 1087,
      "亭": 1088,
      "亮": 1089,
      "亲": 1090,
      "亵": 1091,
      "人": 1092,
      "亿": 1093,
      "什": 1094,
      "仁": 1095,
      "仃": 1096,
      "仅": 1097,
      "仆": 1098,
      "仇": 1099,
      "今": 1100,
      "介": 1101,
      "仍": 1102,
      "从": 1103,
      "仑": 1104,
      "仓": 1105,
      "仔": 1106,
      "仕": 1107,
      "他": 1108,
      "仗": 1109,
      "付": 1110,
      "仙": 1111,
      "仞": 1112,
      "仟": 1113,
      "代": 1114,
      "令": 1115,
      "以": 1116,
      "仨": 1117,
      "仪": 1118,
      "们": 1119,
      "仰": 1120,
      "仲": 1121,
      "件": 1122,
      "价": 1123,
      "任": 1124,
      "份": 1125,
      "仿": 1126,
      "企": 1127,
      "伉": 1128,
      "伊": 1129,
      "伍": 1130,
      "伎": 1131,
      "伏": 1132,
      "伐": 1133,
      "休": 1134,
      "伔": 1135,
      "众": 1136,
      "优": 1137,
      "伙": 1138,
      "会": 1139,
      "伝": 1140,
      "伞": 1141,
      "伟": 1142,
      "传": 1143,
      "伢": 1144,
      "伤": 1145,
      "伦": 1146,
      "伪": 1147,
      "伫": 1148,
      "伯": 1149,
      "估": 1150,
      "伲": 1151,
      "伴": 1152,
      "伶": 1153,
      "伸": 1154,
      "伺": 1155,
      "似": 1156,
      "伽": 1157,
      "佃": 1158,
      "但": 1159,
      "佈": 1160,
      "位": 1161,
      "低": 1162,
      "住": 1163,
      "佐": 1164,
      "佑": 1165,
      "体": 1166,
      "佔": 1167,
      "何": 1168,
      "佗": 1169,
      "佘": 1170,
      "余": 1171,
      "佚": 1172,
      "佛": 1173,
      "作": 1174,
      "佝": 1175,
      "佞": 1176,
      "你": 1177,
      "佢": 1178,
      "佣": 1179,
      "佤": 1180,
      "佩": 1181,
      "佪": 1182,
      "佬": 1183,
      "佯": 1184,
      "佰": 1185,
      "佳": 1186,
      "佴": 1187,
      "併": 1188,
      "佷": 1189,
      "佻": 1190,
      "佼": 1191,
      "佽": 1192,
      "使": 1193,
      "侂": 1194,
      "侃": 1195,
      "侄": 1196,
      "來": 1197,
      "侇": 1198,
      "侈": 1199,
      "例": 1200,
      "侍": 1201,
      "侏": 1202,
      "侑": 1203,
      "侖": 1204,
      "侗": 1205,
      "侚": 1206,
      "供": 1207,
      "侜": 1208,
      "依": 1209,
      "侠": 1210,
      "侣": 1211,
      "侥": 1212,
      "侦": 1213,
      "侧": 1214,
      "侨": 1215,
      "侩": 1216,
      "侪": 1217,
      "侬": 1218,
      "侮": 1219,
      "侯": 1220,
      "侳": 1221,
      "侵": 1222,
      "侶": 1223,
      "便": 1224,
      "俀": 1225,
      "係": 1226,
      "促": 1227,
      "俄": 1228,
      "俅": 1229,
      "俇": 1230,
      "俊": 1231,
      "俋": 1232,
      "俎": 1233,
      "俏": 1234,
      "俐": 1235,
      "俑": 1236,
      "俗": 1237,
      "俘": 1238,
      "俙": 1239,
      "俚": 1240,
      "保": 1241,
      "俞": 1242,
      "俟": 1243,
      "俠": 1244,
      "信": 1245,
      "俣": 1246,
      "俨": 1247,
      "俩": 1248,
      "俪": 1249,
      "俬": 1250,
      "俭": 1251,
      "修": 1252,
      "俯": 1253,
      "俱": 1254,
      "俳": 1255,
      "俴": 1256,
      "俸": 1257,
      "俺": 1258,
      "俾": 1259,
      "倆": 1260,
      "倉": 1261,
      "個": 1262,
      "倌": 1263,
      "倍": 1264,
      "倏": 1265,
      "們": 1266,
      "倒": 1267,
      "倓": 1268,
      "倔": 1269,
      "倖": 1270,
      "倘": 1271,
      "候": 1272,
      "倚": 1273,
      "倜": 1274,
      "借": 1275,
      "倡": 1276,
      "倦": 1277,
      "倨": 1278,
      "倩": 1279,
      "倪": 1280,
      "倫": 1281,
      "倭": 1282,
      "倮": 1283,
      "倰": 1284,
      "倳": 1285,
      "债": 1286,
      "值": 1287,
      "倾": 1288,
      "偃": 1289,
      "假": 1290,
      "偈": 1291,
      "偉": 1292,
      "偌": 1293,
      "偎": 1294,
      "偏": 1295,
      "偕": 1296,
      "做": 1297,
      "停": 1298,
      "健": 1299,
      "側": 1300,
      "偵": 1301,
      "偶": 1302,
      "偷": 1303,
      "偻": 1304,
      "偽": 1305,
      "偿": 1306,
      "傀": 1307,
      "傅": 1308,
      "傍": 1309,
      "傑": 1310,
      "傖": 1311,
      "傘": 1312,
      "備": 1313,
      "傢": 1314,
      "傣": 1315,
      "傥": 1316,
      "傧": 1317,
      "储": 1318,
      "催": 1319,
      "傭": 1320,
      "傲": 1321,
      "傳": 1322,
      "債": 1323,
      "傷": 1324,
      "傻": 1325,
      "傾": 1326,
      "僅": 1327,
      "僊": 1328,
      "像": 1329,
      "僕": 1330,
      "僚": 1331,
      "僞": 1332,
      "僧": 1333,
      "僭": 1334,
      "僮": 1335,
      "僱": 1336,
      "僳": 1337,
      "僵": 1338,
      "價": 1339,
      "僻": 1340,
      "儀": 1341,
      "儂": 1342,
      "億": 1343,
      "儆": 1344,
      "儈": 1345,
      "儉": 1346,
      "儒": 1347,
      "儘": 1348,
      "償": 1349,
      "儡": 1350,
      "優": 1351,
      "儲": 1352,
      "儸": 1353,
      "儿": 1354,
      "兀": 1355,
      "允": 1356,
      "元": 1357,
      "兄": 1358,
      "充": 1359,
      "兆": 1360,
      "兇": 1361,
      "先": 1362,
      "光": 1363,
      "克": 1364,
      "兌": 1365,
      "免": 1366,
      "兑": 1367,
      "兒": 1368,
      "兔": 1369,
      "党": 1370,
      "兜": 1371,
      "兢": 1372,
      "入": 1373,
      "內": 1374,
      "全": 1375,
      "兩": 1376,
      "八": 1377,
      "公": 1378,
      "六": 1379,
      "兮": 1380,
      "兰": 1381,
      "共": 1382,
      "关": 1383,
      "兴": 1384,
      "兵": 1385,
      "其": 1386,
      "具": 1387,
      "典": 1388,
      "兹": 1389,
      "养": 1390,
      "兼": 1391,
      "兽": 1392,
      "冀": 1393,
      "内": 1394,
      "円": 1395,
      "冇": 1396,
      "冈": 1397,
      "冉": 1398,
      "冊": 1399,
      "册": 1400,
      "再": 1401,
      "冏": 1402,
      "冑": 1403,
      "冒": 1404,
      "冕": 1405,
      "冗": 1406,
      "写": 1407,
      "冚": 1408,
      "军": 1409,
      "农": 1410,
      "冠": 1411,
      "冢": 1412,
      "冤": 1413,
      "冥": 1414,
      "冪": 1415,
      "冬": 1416,
      "冯": 1417,
      "冰": 1418,
      "冱": 1419,
      "冲": 1420,
      "决": 1421,
      "况": 1422,
      "冶": 1423,
      "冷": 1424,
      "冻": 1425,
      "净": 1426,
      "凄": 1427,
      "凅": 1428,
      "准": 1429,
      "凉": 1430,
      "凋": 1431,
      "凌": 1432,
      "凍": 1433,
      "减": 1434,
      "凑": 1435,
      "凛": 1436,
      "凜": 1437,
      "凝": 1438,
      "几": 1439,
      "凡": 1440,
      "凤": 1441,
      "凫": 1442,
      "凭": 1443,
      "凯": 1444,
      "凰": 1445,
      "凱": 1446,
      "凳": 1447,
      "凶": 1448,
      "凸": 1449,
      "凹": 1450,
      "出": 1451,
      "击": 1452,
      "函": 1453,
      "凿": 1454,
      "刀": 1455,
      "刁": 1456,
      "刃": 1457,
      "分": 1458,
      "切": 1459,
      "刉": 1460,
      "刊": 1461,
      "刍": 1462,
      "刎": 1463,
      "刑": 1464,
      "划": 1465,
      "刓": 1466,
      "列": 1467,
      "刘": 1468,
      "则": 1469,
      "刚": 1470,
      "创": 1471,
      "初": 1472,
      "删": 1473,
      "判": 1474,
      "別": 1475,
      "刨": 1476,
      "利": 1477,
      "刪": 1478,
      "别": 1479,
      "刮": 1480,
      "到": 1481,
      "制": 1482,
      "刷": 1483,
      "券": 1484,
      "刹": 1485,
      "刺": 1486,
      "刻": 1487,
      "刽": 1488,
      "剀": 1489,
      "剁": 1490,
      "剂": 1491,
      "剃": 1492,
      "則": 1493,
      "剉": 1494,
      "削": 1495,
      "剋": 1496,
      "剌": 1497,
      "前": 1498,
      "剎": 1499,
      "剐": 1500,
      "剑": 1501,
      "剒": 1502,
      "剔": 1503,
      "剕": 1504,
      "剖": 1505,
      "剛": 1506,
      "剝": 1507,
      "剞": 1508,
      "剥": 1509,
      "剧": 1510,
      "剩": 1511,
      "剪": 1512,
      "剮": 1513,
      "副": 1514,
      "割": 1515,
      "創": 1516,
      "剷": 1517,
      "剽": 1518,
      "剿": 1519,
      "劃": 1520,
      "劇": 1521,
      "劈": 1522,
      "劉": 1523,
      "劊": 1524,
      "劍": 1525,
      "劑": 1526,
      "劓": 1527,
      "力": 1528,
      "劝": 1529,
      "办": 1530,
      "功": 1531,
      "加": 1532,
      "务": 1533,
      "劣": 1534,
      "劦": 1535,
      "动": 1536,
      "助": 1537,
      "努": 1538,
      "劫": 1539,
      "励": 1540,
      "劲": 1541,
      "劳": 1542,
      "劵": 1543,
      "劾": 1544,
      "势": 1545,
      "勀": 1546,
      "勁": 1547,
      "勃": 1548,
      "勇": 1549,
      "勉": 1550,
      "勋": 1551,
      "勍": 1552,
      "勐": 1553,
      "勒": 1554,
      "動": 1555,
      "勘": 1556,
      "務": 1557,
      "勛": 1558,
      "勝": 1559,
      "勞": 1560,
      "募": 1561,
      "勢": 1562,
      "勤": 1563,
      "勦": 1564,
      "勳": 1565,
      "勵": 1566,
      "勸": 1567,
      "勺": 1568,
      "勻": 1569,
      "勾": 1570,
      "勿": 1571,
      "匀": 1572,
      "包": 1573,
      "匆": 1574,
      "匈": 1575,
      "匍": 1576,
      "匐": 1577,
      "匕": 1578,
      "化": 1579,
      "北": 1580,
      "匙": 1581,
      "匝": 1582,
      "匠": 1583,
      "匡": 1584,
      "匣": 1585,
      "匪": 1586,
      "匮": 1587,
      "匯": 1588,
      "匹": 1589,
      "区": 1590,
      "医": 1591,
      "匾": 1592,
      "匿": 1593,
      "區": 1594,
      "十": 1595,
      "千": 1596,
      "卅": 1597,
      "升": 1598,
      "午": 1599,
      "卉": 1600,
      "半": 1601,
      "卍": 1602,
      "华": 1603,
      "协": 1604,
      "卑": 1605,
      "卒": 1606,
      "卓": 1607,
      "協": 1608,
      "单": 1609,
      "卖": 1610,
      "南": 1611,
      "博": 1612,
      "卜": 1613,
      "卞": 1614,
      "占": 1615,
      "卡": 1616,
      "卢": 1617,
      "卤": 1618,
      "卦": 1619,
      "卧": 1620,
      "卫": 1621,
      "卯": 1622,
      "印": 1623,
      "危": 1624,
      "即": 1625,
      "却": 1626,
      "卵": 1627,
      "卷": 1628,
      "卸": 1629,
      "卻": 1630,
      "卿": 1631,
      "厂": 1632,
      "厄": 1633,
      "厅": 1634,
      "历": 1635,
      "厉": 1636,
      "压": 1637,
      "厌": 1638,
      "厕": 1639,
      "厘": 1640,
      "厚": 1641,
      "厝": 1642,
      "原": 1643,
      "厢": 1644,
      "厥": 1645,
      "厦": 1646,
      "厨": 1647,
      "厩": 1648,
      "厭": 1649,
      "厮": 1650,
      "厲": 1651,
      "去": 1652,
      "县": 1653,
      "叁": 1654,
      "参": 1655,
      "參": 1656,
      "又": 1657,
      "叉": 1658,
      "及": 1659,
      "友": 1660,
      "双": 1661,
      "反": 1662,
      "发": 1663,
      "叔": 1664,
      "取": 1665,
      "受": 1666,
      "变": 1667,
      "叙": 1668,
      "叛": 1669,
      "叟": 1670,
      "叠": 1671,
      "叢": 1672,
      "口": 1673,
      "古": 1674,
      "句": 1675,
      "另": 1676,
      "叨": 1677,
      "叩": 1678,
      "只": 1679,
      "叫": 1680,
      "召": 1681,
      "叭": 1682,
      "叮": 1683,
      "可": 1684,
      "台": 1685,
      "叱": 1686,
      "史": 1687,
      "右": 1688,
      "叵": 1689,
      "叶": 1690,
      "号": 1691,
      "司": 1692,
      "叹": 1693,
      "叼": 1694,
      "叽": 1695,
      "吁": 1696,
      "吃": 1697,
      "各": 1698,
      "吆": 1699,
      "合": 1700,
      "吉": 1701,
      "吊": 1702,
      "吋": 1703,
      "同": 1704,
      "名": 1705,
      "后": 1706,
      "吏": 1707,
      "吐": 1708,
      "向": 1709,
      "吓": 1710,
      "吔": 1711,
      "吕": 1712,
      "吖": 1713,
      "吗": 1714,
      "君": 1715,
      "吝": 1716,
      "吞": 1717,
      "吟": 1718,
      "吠": 1719,
      "吡": 1720,
      "否": 1721,
      "吧": 1722,
      "吨": 1723,
      "吩": 1724,
      "含": 1725,
      "听": 1726,
      "吭": 1727,
      "吮": 1728,
      "启": 1729,
      "吱": 1730,
      "吳": 1731,
      "吴": 1732,
      "吵": 1733,
      "吶": 1734,
      "吸": 1735,
      "吹": 1736,
      "吻": 1737,
      "吼": 1738,
      "吽": 1739,
      "吾": 1740,
      "呀": 1741,
      "呂": 1742,
      "呃": 1743,
      "呆": 1744,
      "呈": 1745,
      "告": 1746,
      "呋": 1747,
      "呎": 1748,
      "呐": 1749,
      "呑": 1750,
      "呒": 1751,
      "呕": 1752,
      "呗": 1753,
      "员": 1754,
      "呛": 1755,
      "呜": 1756,
      "呡": 1757,
      "呢": 1758,
      "呣": 1759,
      "呤": 1760,
      "呦": 1761,
      "呧": 1762,
      "周": 1763,
      "呯": 1764,
      "呱": 1765,
      "味": 1766,
      "呵": 1767,
      "呶": 1768,
      "呸": 1769,
      "呻": 1770,
      "呼": 1771,
      "命": 1772,
      "呾": 1773,
      "咀": 1774,
      "咁": 1775,
      "咂": 1776,
      "咄": 1777,
      "咆": 1778,
      "咋": 1779,
      "和": 1780,
      "咍": 1781,
      "咎": 1782,
      "咏": 1783,
      "咐": 1784,
      "咒": 1785,
      "咔": 1786,
      "咕": 1787,
      "咖": 1788,
      "咗": 1789,
      "咙": 1790,
      "咚": 1791,
      "咡": 1792,
      "咤": 1793,
      "咦": 1794,
      "咧": 1795,
      "咨": 1796,
      "咩": 1797,
      "咪": 1798,
      "咫": 1799,
      "咬": 1800,
      "咭": 1801,
      "咯": 1802,
      "咱": 1803,
      "咳": 1804,
      "咸": 1805,
      "咻": 1806,
      "咽": 1807,
      "咿": 1808,
      "哀": 1809,
      "品": 1810,
      "哂": 1811,
      "哄": 1812,
      "哆": 1813,
      "哇": 1814,
      "哈": 1815,
      "哉": 1816,
      "哋": 1817,
      "哌": 1818,
      "响": 1819,
      "哎": 1820,
      "哑": 1821,
      "哒": 1822,
      "哔": 1823,
      "哗": 1824,
      "哝": 1825,
      "哞": 1826,
      "哟": 1827,
      "員": 1828,
      "哥": 1829,
      "哦": 1830,
      "哧": 1831,
      "哨": 1832,
      "哩": 1833,
      "哪": 1834,
      "哭": 1835,
      "哮": 1836,
      "哲": 1837,
      "哺": 1838,
      "哼": 1839,
      "哽": 1840,
      "唁": 1841,
      "唄": 1842,
      "唆": 1843,
      "唇": 1844,
      "唉": 1845,
      "唏": 1846,
      "唐": 1847,
      "唑": 1848,
      "唔": 1849,
      "唗": 1850,
      "唛": 1851,
      "唠": 1852,
      "唤": 1853,
      "唧": 1854,
      "唬": 1855,
      "售": 1856,
      "唯": 1857,
      "唰": 1858,
      "唱": 1859,
      "唳": 1860,
      "唵": 1861,
      "唷": 1862,
      "唸": 1863,
      "唻": 1864,
      "唾": 1865,
      "啁": 1866,
      "啃": 1867,
      "啄": 1868,
      "商": 1869,
      "啊": 1870,
      "啋": 1871,
      "問": 1872,
      "啕": 1873,
      "啖": 1874,
      "啜": 1875,
      "啞": 1876,
      "啟": 1877,
      "啡": 1878,
      "啣": 1879,
      "啤": 1880,
      "啥": 1881,
      "啦": 1882,
      "啧": 1883,
      "啪": 1884,
      "啫": 1885,
      "啬": 1886,
      "啮": 1887,
      "啰": 1888,
      "啱": 1889,
      "啲": 1890,
      "啵": 1891,
      "啶": 1892,
      "啸": 1893,
      "啻": 1894,
      "啼": 1895,
      "啾": 1896,
      "喀": 1897,
      "喂": 1898,
      "喃": 1899,
      "善": 1900,
      "喇": 1901,
      "喉": 1902,
      "喊": 1903,
      "喋": 1904,
      "喎": 1905,
      "喏": 1906,
      "喑": 1907,
      "喔": 1908,
      "喘": 1909,
      "喙": 1910,
      "喚": 1911,
      "喜": 1912,
      "喝": 1913,
      "喧": 1914,
      "喪": 1915,
      "喫": 1916,
      "喬": 1917,
      "單": 1918,
      "喱": 1919,
      "喲": 1920,
      "喳": 1921,
      "喵": 1922,
      "喷": 1923,
      "喹": 1924,
      "喺": 1925,
      "喻": 1926,
      "喽": 1927,
      "嗅": 1928,
      "嗆": 1929,
      "嗇": 1930,
      "嗌": 1931,
      "嗎": 1932,
      "嗐": 1933,
      "嗑": 1934,
      "嗒": 1935,
      "嗓": 1936,
      "嗖": 1937,
      "嗚": 1938,
      "嗜": 1939,
      "嗝": 1940,
      "嗡": 1941,
      "嗣": 1942,
      "嗤": 1943,
      "嗥": 1944,
      "嗦": 1945,
      "嗨": 1946,
      "嗪": 1947,
      "嗬": 1948,
      "嗯": 1949,
      "嗰": 1950,
      "嗱": 1951,
      "嗲": 1952,
      "嗳": 1953,
      "嗶": 1954,
      "嗷": 1955,
      "嗽": 1956,
      "嘀": 1957,
      "嘅": 1958,
      "嘆": 1959,
      "嘈": 1960,
      "嘉": 1961,
      "嘍": 1962,
      "嘎": 1963,
      "嘔": 1964,
      "嘗": 1965,
      "嘘": 1966,
      "嘛": 1967,
      "嘞": 1968,
      "嘟": 1969,
      "嘠": 1970,
      "嘢": 1971,
      "嘣": 1972,
      "嘩": 1973,
      "嘭": 1974,
      "嘯": 1975,
      "嘱": 1976,
      "嘲": 1977,
      "嘴": 1978,
      "嘶": 1979,
      "嘹": 1980,
      "嘻": 1981,
      "嘿": 1982,
      "噁": 1983,
      "噎": 1984,
      "噓": 1985,
      "噔": 1986,
      "噗": 1987,
      "噙": 1988,
      "噜": 1989,
      "噠": 1990,
      "噢": 1991,
      "器": 1992,
      "噩": 1993,
      "噪": 1994,
      "噫": 1995,
      "噬": 1996,
      "噱": 1997,
      "噴": 1998,
      "噶": 1999,
      "噸": 2000,
      "噹": 2001,
      "噻": 2002,
      "噿": 2003,
      "嚀": 2004,
      "嚇": 2005,
      "嚎": 2006,
      "嚏": 2007,
      "嚐": 2008,
      "嚒": 2009,
      "嚓": 2010,
      "嚟": 2011,
      "嚣": 2012,
      "嚥": 2013,
      "嚨": 2014,
      "嚮": 2015,
      "嚯": 2016,
      "嚴": 2017,
      "嚶": 2018,
      "嚷": 2019,
      "嚼": 2020,
      "囂": 2021,
      "囉": 2022,
      "囊": 2023,
      "囑": 2024,
      "囔": 2025,
      "囚": 2026,
      "四": 2027,
      "回": 2028,
      "因": 2029,
      "囡": 2030,
      "团": 2031,
      "囤": 2032,
      "囧": 2033,
      "囪": 2034,
      "园": 2035,
      "囮": 2036,
      "困": 2037,
      "囱": 2038,
      "围": 2039,
      "囹": 2040,
      "固": 2041,
      "国": 2042,
      "图": 2043,
      "囿": 2044,
      "圃": 2045,
      "圄": 2046,
      "圆": 2047,
      "圈": 2048,
      "國": 2049,
      "圍": 2050,
      "園": 2051,
      "圓": 2052,
      "圖": 2053,
      "團": 2054,
      "土": 2055,
      "圣": 2056,
      "在": 2057,
      "圭": 2058,
      "地": 2059,
      "圳": 2060,
      "圴": 2061,
      "场": 2062,
      "圾": 2063,
      "址": 2064,
      "坂": 2065,
      "均": 2066,
      "坊": 2067,
      "坍": 2068,
      "坎": 2069,
      "坏": 2070,
      "坐": 2071,
      "坑": 2072,
      "块": 2073,
      "坚": 2074,
      "坛": 2075,
      "坝": 2076,
      "坞": 2077,
      "坟": 2078,
      "坠": 2079,
      "坡": 2080,
      "坤": 2081,
      "坦": 2082,
      "坨": 2083,
      "坩": 2084,
      "坪": 2085,
      "坫": 2086,
      "坯": 2087,
      "坳": 2088,
      "坴": 2089,
      "坶": 2090,
      "坷": 2091,
      "坻": 2092,
      "垀": 2093,
      "垂": 2094,
      "垃": 2095,
      "垄": 2096,
      "型": 2097,
      "垒": 2098,
      "垛": 2099,
      "垠": 2100,
      "垢": 2101,
      "垣": 2102,
      "垦": 2103,
      "垩": 2104,
      "垫": 2105,
      "垭": 2106,
      "垮": 2107,
      "垸": 2108,
      "埃": 2109,
      "埋": 2110,
      "城": 2111,
      "埔": 2112,
      "埕": 2113,
      "埚": 2114,
      "埜": 2115,
      "域": 2116,
      "埠": 2117,
      "埣": 2118,
      "埭": 2119,
      "埮": 2120,
      "埲": 2121,
      "執": 2122,
      "埸": 2123,
      "培": 2124,
      "基": 2125,
      "埻": 2126,
      "堀": 2127,
      "堂": 2128,
      "堅": 2129,
      "堆": 2130,
      "堇": 2131,
      "堈": 2132,
      "堋": 2133,
      "堍": 2134,
      "堎": 2135,
      "堑": 2136,
      "堕": 2137,
      "堡": 2138,
      "堤": 2139,
      "堪": 2140,
      "報": 2141,
      "場": 2142,
      "堵": 2143,
      "塊": 2144,
      "塋": 2145,
      "塌": 2146,
      "塑": 2147,
      "塔": 2148,
      "塗": 2149,
      "塘": 2150,
      "塞": 2151,
      "塢": 2152,
      "填": 2153,
      "塵": 2154,
      "塾": 2155,
      "境": 2156,
      "墅": 2157,
      "墉": 2158,
      "墊": 2159,
      "墒": 2160,
      "墓": 2161,
      "増": 2162,
      "墙": 2163,
      "墜": 2164,
      "增": 2165,
      "墟": 2166,
      "墨": 2167,
      "墩": 2168,
      "墮": 2169,
      "墳": 2170,
      "墾": 2171,
      "壁": 2172,
      "壅": 2173,
      "壇": 2174,
      "壑": 2175,
      "壓": 2176,
      "壕": 2177,
      "壘": 2178,
      "壚": 2179,
      "壞": 2180,
      "壟": 2181,
      "壤": 2182,
      "壩": 2183,
      "士": 2184,
      "壮": 2185,
      "壯": 2186,
      "声": 2187,
      "壳": 2188,
      "壶": 2189,
      "壹": 2190,
      "壺": 2191,
      "壽": 2192,
      "处": 2193,
      "备": 2194,
      "复": 2195,
      "夏": 2196,
      "夔": 2197,
      "夕": 2198,
      "外": 2199,
      "夙": 2200,
      "多": 2201,
      "夜": 2202,
      "够": 2203,
      "夠": 2204,
      "夢": 2205,
      "夥": 2206,
      "大": 2207,
      "天": 2208,
      "太": 2209,
      "夫": 2210,
      "夭": 2211,
      "央": 2212,
      "夯": 2213,
      "失": 2214,
      "头": 2215,
      "夷": 2216,
      "夸": 2217,
      "夹": 2218,
      "夺": 2219,
      "夼": 2220,
      "夾": 2221,
      "奀": 2222,
      "奁": 2223,
      "奂": 2224,
      "奄": 2225,
      "奇": 2226,
      "奈": 2227,
      "奉": 2228,
      "奋": 2229,
      "奌": 2230,
      "奎": 2231,
      "奏": 2232,
      "契": 2233,
      "奔": 2234,
      "奕": 2235,
      "奖": 2236,
      "套": 2237,
      "奚": 2238,
      "奠": 2239,
      "奢": 2240,
      "奥": 2241,
      "奧": 2242,
      "奪": 2243,
      "奮": 2244,
      "女": 2245,
      "奴": 2246,
      "奶": 2247,
      "奸": 2248,
      "她": 2249,
      "奻": 2250,
      "好": 2251,
      "奾": 2252,
      "如": 2253,
      "妃": 2254,
      "妄": 2255,
      "妆": 2256,
      "妇": 2257,
      "妈": 2258,
      "妊": 2259,
      "妍": 2260,
      "妏": 2261,
      "妒": 2262,
      "妓": 2263,
      "妖": 2264,
      "妗": 2265,
      "妙": 2266,
      "妝": 2267,
      "妞": 2268,
      "妥": 2269,
      "妦": 2270,
      "妨": 2271,
      "妩": 2272,
      "妪": 2273,
      "妮": 2274,
      "妲": 2275,
      "妳": 2276,
      "妹": 2277,
      "妻": 2278,
      "妾": 2279,
      "姆": 2280,
      "姊": 2281,
      "始": 2282,
      "姍": 2283,
      "姐": 2284,
      "姑": 2285,
      "姓": 2286,
      "委": 2287,
      "姗": 2288,
      "姘": 2289,
      "姚": 2290,
      "姜": 2291,
      "姣": 2292,
      "姥": 2293,
      "姦": 2294,
      "姨": 2295,
      "姪": 2296,
      "姬": 2297,
      "姻": 2298,
      "姿": 2299,
      "威": 2300,
      "娃": 2301,
      "娄": 2302,
      "娅": 2303,
      "娆": 2304,
      "娇": 2305,
      "娈": 2306,
      "娒": 2307,
      "娘": 2308,
      "娛": 2309,
      "娜": 2310,
      "娟": 2311,
      "娠": 2312,
      "娣": 2313,
      "娥": 2314,
      "娩": 2315,
      "娱": 2316,
      "娴": 2317,
      "娶": 2318,
      "娼": 2319,
      "婁": 2320,
      "婄": 2321,
      "婆": 2322,
      "婉": 2323,
      "婊": 2324,
      "婌": 2325,
      "婓": 2326,
      "婕": 2327,
      "婚": 2328,
      "婢": 2329,
      "婦": 2330,
      "婪": 2331,
      "婬": 2332,
      "婭": 2333,
      "婴": 2334,
      "婵": 2335,
      "婶": 2336,
      "婷": 2337,
      "婼": 2338,
      "婿": 2339,
      "媎": 2340,
      "媒": 2341,
      "媚": 2342,
      "媛": 2343,
      "媞": 2344,
      "媲": 2345,
      "媳": 2346,
      "媼": 2347,
      "媽": 2348,
      "媾": 2349,
      "嫁": 2350,
      "嫂": 2351,
      "嫉": 2352,
      "嫌": 2353,
      "嫔": 2354,
      "嫖": 2355,
      "嫡": 2356,
      "嫣": 2357,
      "嫦": 2358,
      "嫩": 2359,
      "嬉": 2360,
      "嬤": 2361,
      "嬰": 2362,
      "嬲": 2363,
      "嬴": 2364,
      "嬷": 2365,
      "嬸": 2366,
      "孀": 2367,
      "孃": 2368,
      "子": 2369,
      "孑": 2370,
      "孔": 2371,
      "孕": 2372,
      "孖": 2373,
      "字": 2374,
      "存": 2375,
      "孙": 2376,
      "孚": 2377,
      "孜": 2378,
      "孝": 2379,
      "孟": 2380,
      "孢": 2381,
      "季": 2382,
      "孤": 2383,
      "学": 2384,
      "孩": 2385,
      "孪": 2386,
      "孫": 2387,
      "孬": 2388,
      "孮": 2389,
      "孰": 2390,
      "孱": 2391,
      "孳": 2392,
      "孵": 2393,
      "學": 2394,
      "孺": 2395,
      "孽": 2396,
      "孿": 2397,
      "宁": 2398,
      "它": 2399,
      "宅": 2400,
      "宇": 2401,
      "守": 2402,
      "安": 2403,
      "宋": 2404,
      "完": 2405,
      "宎": 2406,
      "宏": 2407,
      "宒": 2408,
      "宓": 2409,
      "宕": 2410,
      "宗": 2411,
      "官": 2412,
      "宙": 2413,
      "定": 2414,
      "宛": 2415,
      "宜": 2416,
      "宝": 2417,
      "实": 2418,
      "実": 2419,
      "宠": 2420,
      "审": 2421,
      "客": 2422,
      "宣": 2423,
      "室": 2424,
      "宥": 2425,
      "宦": 2426,
      "宪": 2427,
      "宫": 2428,
      "宮": 2429,
      "宰": 2430,
      "害": 2431,
      "宴": 2432,
      "宵": 2433,
      "家": 2434,
      "宸": 2435,
      "容": 2436,
      "宽": 2437,
      "宾": 2438,
      "宿": 2439,
      "寀": 2440,
      "寁": 2441,
      "寂": 2442,
      "寄": 2443,
      "寅": 2444,
      "密": 2445,
      "寇": 2446,
      "富": 2447,
      "寐": 2448,
      "寒": 2449,
      "寓": 2450,
      "寝": 2451,
      "寞": 2452,
      "察": 2453,
      "寡": 2454,
      "寢": 2455,
      "寤": 2456,
      "寥": 2457,
      "實": 2458,
      "寧": 2459,
      "寨": 2460,
      "審": 2461,
      "寫": 2462,
      "寬": 2463,
      "寮": 2464,
      "寰": 2465,
      "寵": 2466,
      "寶": 2467,
      "寸": 2468,
      "对": 2469,
      "寺": 2470,
      "寻": 2471,
      "导": 2472,
      "寿": 2473,
      "封": 2474,
      "射": 2475,
      "尅": 2476,
      "将": 2477,
      "將": 2478,
      "專": 2479,
      "尉": 2480,
      "尊": 2481,
      "尋": 2482,
      "對": 2483,
      "導": 2484,
      "小": 2485,
      "少": 2486,
      "尓": 2487,
      "尔": 2488,
      "尖": 2489,
      "尘": 2490,
      "尚": 2491,
      "尝": 2492,
      "尢": 2493,
      "尤": 2494,
      "尧": 2495,
      "尨": 2496,
      "尪": 2497,
      "尬": 2498,
      "就": 2499,
      "尴": 2500,
      "尷": 2501,
      "尸": 2502,
      "尹": 2503,
      "尺": 2504,
      "尻": 2505,
      "尼": 2506,
      "尽": 2507,
      "尾": 2508,
      "尿": 2509,
      "局": 2510,
      "屁": 2511,
      "层": 2512,
      "屄": 2513,
      "居": 2514,
      "屆": 2515,
      "屈": 2516,
      "屉": 2517,
      "届": 2518,
      "屋": 2519,
      "屌": 2520,
      "屍": 2521,
      "屎": 2522,
      "屏": 2523,
      "屐": 2524,
      "屑": 2525,
      "展": 2526,
      "屙": 2527,
      "屜": 2528,
      "属": 2529,
      "屠": 2530,
      "屡": 2531,
      "層": 2532,
      "履": 2533,
      "屬": 2534,
      "屯": 2535,
      "山": 2536,
      "屹": 2537,
      "屾": 2538,
      "屿": 2539,
      "岁": 2540,
      "岂": 2541,
      "岆": 2542,
      "岈": 2543,
      "岌": 2544,
      "岍": 2545,
      "岐": 2546,
      "岑": 2547,
      "岔": 2548,
      "岖": 2549,
      "岗": 2550,
      "岘": 2551,
      "岚": 2552,
      "岛": 2553,
      "岡": 2554,
      "岩": 2555,
      "岬": 2556,
      "岭": 2557,
      "岱": 2558,
      "岳": 2559,
      "岸": 2560,
      "岿": 2561,
      "峇": 2562,
      "峈": 2563,
      "峊": 2564,
      "峋": 2565,
      "峙": 2566,
      "峡": 2567,
      "峥": 2568,
      "峦": 2569,
      "峨": 2570,
      "峪": 2571,
      "峭": 2572,
      "峯": 2573,
      "峰": 2574,
      "島": 2575,
      "峻": 2576,
      "峽": 2577,
      "崂": 2578,
      "崇": 2579,
      "崋": 2580,
      "崎": 2581,
      "崔": 2582,
      "崖": 2583,
      "崗": 2584,
      "崛": 2585,
      "崩": 2586,
      "崭": 2587,
      "崴": 2588,
      "崽": 2589,
      "嵋": 2590,
      "嵌": 2591,
      "嵘": 2592,
      "嵩": 2593,
      "嵴": 2594,
      "嶂": 2595,
      "嶄": 2596,
      "嶋": 2597,
      "嶙": 2598,
      "嶲": 2599,
      "嶺": 2600,
      "嶼": 2601,
      "巅": 2602,
      "巒": 2603,
      "巖": 2604,
      "川": 2605,
      "州": 2606,
      "巡": 2607,
      "巢": 2608,
      "工": 2609,
      "左": 2610,
      "巧": 2611,
      "巨": 2612,
      "巩": 2613,
      "巫": 2614,
      "差": 2615,
      "己": 2616,
      "已": 2617,
      "巳": 2618,
      "巴": 2619,
      "巷": 2620,
      "巻": 2621,
      "巾": 2622,
      "巿": 2623,
      "币": 2624,
      "市": 2625,
      "布": 2626,
      "帅": 2627,
      "帆": 2628,
      "师": 2629,
      "帊": 2630,
      "希": 2631,
      "帐": 2632,
      "帑": 2633,
      "帕": 2634,
      "帖": 2635,
      "帘": 2636,
      "帚": 2637,
      "帛": 2638,
      "帜": 2639,
      "帝": 2640,
      "帥": 2641,
      "带": 2642,
      "帧": 2643,
      "師": 2644,
      "席": 2645,
      "帮": 2646,
      "帳": 2647,
      "帶": 2648,
      "帷": 2649,
      "常": 2650,
      "帼": 2651,
      "帽": 2652,
      "幂": 2653,
      "幄": 2654,
      "幅": 2655,
      "幌": 2656,
      "幔": 2657,
      "幕": 2658,
      "幗": 2659,
      "幛": 2660,
      "幡": 2661,
      "幢": 2662,
      "幣": 2663,
      "幫": 2664,
      "干": 2665,
      "平": 2666,
      "年": 2667,
      "并": 2668,
      "幸": 2669,
      "幹": 2670,
      "幺": 2671,
      "幻": 2672,
      "幼": 2673,
      "幽": 2674,
      "幾": 2675,
      "广": 2676,
      "庄": 2677,
      "庆": 2678,
      "庇": 2679,
      "庈": 2680,
      "床": 2681,
      "序": 2682,
      "庐": 2683,
      "库": 2684,
      "应": 2685,
      "底": 2686,
      "庖": 2687,
      "店": 2688,
      "庙": 2689,
      "庚": 2690,
      "府": 2691,
      "庞": 2692,
      "废": 2693,
      "度": 2694,
      "座": 2695,
      "庫": 2696,
      "庭": 2697,
      "庵": 2698,
      "庶": 2699,
      "康": 2700,
      "庸": 2701,
      "廁": 2702,
      "廂": 2703,
      "廄": 2704,
      "廈": 2705,
      "廉": 2706,
      "廊": 2707,
      "廓": 2708,
      "廖": 2709,
      "廚": 2710,
      "廝": 2711,
      "廟": 2712,
      "廠": 2713,
      "廢": 2714,
      "廣": 2715,
      "廳": 2716,
      "延": 2717,
      "廷": 2718,
      "廸": 2719,
      "建": 2720,
      "廻": 2721,
      "廿": 2722,
      "开": 2723,
      "弁": 2724,
      "异": 2725,
      "弃": 2726,
      "弄": 2727,
      "弅": 2728,
      "弇": 2729,
      "弈": 2730,
      "弊": 2731,
      "弋": 2732,
      "式": 2733,
      "弑": 2734,
      "弓": 2735,
      "弔": 2736,
      "引": 2737,
      "弗": 2738,
      "弘": 2739,
      "弛": 2740,
      "弝": 2741,
      "弟": 2742,
      "张": 2743,
      "弥": 2744,
      "弦": 2745,
      "弧": 2746,
      "弩": 2747,
      "弭": 2748,
      "弯": 2749,
      "弱": 2750,
      "張": 2751,
      "強": 2752,
      "弹": 2753,
      "强": 2754,
      "弼": 2755,
      "彆": 2756,
      "彈": 2757,
      "彌": 2758,
      "彎": 2759,
      "归": 2760,
      "当": 2761,
      "录": 2762,
      "彗": 2763,
      "彙": 2764,
      "形": 2765,
      "彤": 2766,
      "彥": 2767,
      "彦": 2768,
      "彩": 2769,
      "彪": 2770,
      "彬": 2771,
      "彭": 2772,
      "彰": 2773,
      "影": 2774,
      "彴": 2775,
      "彷": 2776,
      "彸": 2777,
      "役": 2778,
      "彻": 2779,
      "彼": 2780,
      "彿": 2781,
      "往": 2782,
      "征": 2783,
      "径": 2784,
      "待": 2785,
      "徇": 2786,
      "很": 2787,
      "徉": 2788,
      "徊": 2789,
      "律": 2790,
      "後": 2791,
      "徏": 2792,
      "徐": 2793,
      "徑": 2794,
      "徒": 2795,
      "徕": 2796,
      "得": 2797,
      "徘": 2798,
      "徙": 2799,
      "徜": 2800,
      "從": 2801,
      "御": 2802,
      "徨": 2803,
      "復": 2804,
      "循": 2805,
      "徬": 2806,
      "微": 2807,
      "徳": 2808,
      "徵": 2809,
      "德": 2810,
      "徹": 2811,
      "徼": 2812,
      "徽": 2813,
      "心": 2814,
      "必": 2815,
      "忆": 2816,
      "忌": 2817,
      "忍": 2818,
      "忏": 2819,
      "忒": 2820,
      "忖": 2821,
      "志": 2822,
      "忘": 2823,
      "忙": 2824,
      "忠": 2825,
      "忡": 2826,
      "忤": 2827,
      "忧": 2828,
      "忪": 2829,
      "快": 2830,
      "忭": 2831,
      "忱": 2832,
      "念": 2833,
      "忸": 2834,
      "忽": 2835,
      "忾": 2836,
      "忿": 2837,
      "怀": 2838,
      "态": 2839,
      "怂": 2840,
      "怅": 2841,
      "怆": 2842,
      "怍": 2843,
      "怎": 2844,
      "怏": 2845,
      "怒": 2846,
      "怓": 2847,
      "怕": 2848,
      "怖": 2849,
      "怙": 2850,
      "怜": 2851,
      "思": 2852,
      "怠": 2853,
      "怡": 2854,
      "急": 2855,
      "怦": 2856,
      "性": 2857,
      "怨": 2858,
      "怩": 2859,
      "怪": 2860,
      "怮": 2861,
      "怯": 2862,
      "总": 2863,
      "恀": 2864,
      "恁": 2865,
      "恃": 2866,
      "恅": 2867,
      "恆": 2868,
      "恋": 2869,
      "恍": 2870,
      "恐": 2871,
      "恒": 2872,
      "恕": 2873,
      "恙": 2874,
      "恛": 2875,
      "恢": 2876,
      "恣": 2877,
      "恤": 2878,
      "恥": 2879,
      "恨": 2880,
      "恩": 2881,
      "恪": 2882,
      "恫": 2883,
      "恬": 2884,
      "恭": 2885,
      "息": 2886,
      "恰": 2887,
      "恳": 2888,
      "恵": 2889,
      "恶": 2890,
      "恸": 2891,
      "恺": 2892,
      "恻": 2893,
      "恼": 2894,
      "恿": 2895,
      "悄": 2896,
      "悅": 2897,
      "悉": 2898,
      "悌": 2899,
      "悍": 2900,
      "悔": 2901,
      "悖": 2902,
      "悗": 2903,
      "悚": 2904,
      "悛": 2905,
      "悝": 2906,
      "悟": 2907,
      "悠": 2908,
      "患": 2909,
      "悦": 2910,
      "您": 2911,
      "悬": 2912,
      "悯": 2913,
      "悲": 2914,
      "悴": 2915,
      "悵": 2916,
      "悶": 2917,
      "悸": 2918,
      "悼": 2919,
      "悽": 2920,
      "情": 2921,
      "惆": 2922,
      "惇": 2923,
      "惊": 2924,
      "惋": 2925,
      "惑": 2926,
      "惕": 2927,
      "惘": 2928,
      "惚": 2929,
      "惛": 2930,
      "惜": 2931,
      "惟": 2932,
      "惠": 2933,
      "惡": 2934,
      "惦": 2935,
      "惧": 2936,
      "惨": 2937,
      "惩": 2938,
      "惫": 2939,
      "惬": 2940,
      "惭": 2941,
      "惮": 2942,
      "惯": 2943,
      "惰": 2944,
      "惱": 2945,
      "想": 2946,
      "惶": 2947,
      "惹": 2948,
      "惺": 2949,
      "愁": 2950,
      "愆": 2951,
      "愈": 2952,
      "愉": 2953,
      "愍": 2954,
      "愎": 2955,
      "意": 2956,
      "愕": 2957,
      "愚": 2958,
      "愛": 2959,
      "感": 2960,
      "愣": 2961,
      "愤": 2962,
      "愦": 2963,
      "愧": 2964,
      "愿": 2965,
      "慄": 2966,
      "慇": 2967,
      "慈": 2968,
      "態": 2969,
      "慌": 2970,
      "慎": 2971,
      "慑": 2972,
      "慕": 2973,
      "慘": 2974,
      "慢": 2975,
      "慣": 2976,
      "慧": 2977,
      "慨": 2978,
      "慫": 2979,
      "慮": 2980,
      "慰": 2981,
      "慶": 2982,
      "慷": 2983,
      "慾": 2984,
      "憂": 2985,
      "憊": 2986,
      "憋": 2987,
      "憎": 2988,
      "憐": 2989,
      "憑": 2990,
      "憒": 2991,
      "憔": 2992,
      "憤": 2993,
      "憧": 2994,
      "憨": 2995,
      "憩": 2996,
      "憫": 2997,
      "憬": 2998,
      "憲": 2999,
      "憶": 3000,
      "憾": 3001,
      "懂": 3002,
      "懇": 3003,
      "懈": 3004,
      "應": 3005,
      "懊": 3006,
      "懑": 3007,
      "懒": 3008,
      "懟": 3009,
      "懦": 3010,
      "懧": 3011,
      "懨": 3012,
      "懮": 3013,
      "懲": 3014,
      "懵": 3015,
      "懶": 3016,
      "懷": 3017,
      "懸": 3018,
      "懺": 3019,
      "懼": 3020,
      "懾": 3021,
      "懿": 3022,
      "戀": 3023,
      "戈": 3024,
      "戊": 3025,
      "戌": 3026,
      "戍": 3027,
      "戎": 3028,
      "戏": 3029,
      "成": 3030,
      "我": 3031,
      "戒": 3032,
      "戕": 3033,
      "或": 3034,
      "战": 3035,
      "戚": 3036,
      "戛": 3037,
      "戟": 3038,
      "戡": 3039,
      "戥": 3040,
      "截": 3041,
      "戮": 3042,
      "戰": 3043,
      "戲": 3044,
      "戳": 3045,
      "戴": 3046,
      "戶": 3047,
      "户": 3048,
      "房": 3049,
      "所": 3050,
      "扁": 3051,
      "扂": 3052,
      "扇": 3053,
      "扈": 3054,
      "扉": 3055,
      "手": 3056,
      "才": 3057,
      "扎": 3058,
      "扑": 3059,
      "扒": 3060,
      "打": 3061,
      "扔": 3062,
      "托": 3063,
      "扛": 3064,
      "扞": 3065,
      "扢": 3066,
      "扣": 3067,
      "执": 3068,
      "扩": 3069,
      "扪": 3070,
      "扫": 3071,
      "扬": 3072,
      "扭": 3073,
      "扮": 3074,
      "扯": 3075,
      "扰": 3076,
      "扲": 3077,
      "扳": 3078,
      "扶": 3079,
      "批": 3080,
      "扼": 3081,
      "找": 3082,
      "承": 3083,
      "技": 3084,
      "抄": 3085,
      "抇": 3086,
      "抉": 3087,
      "把": 3088,
      "抑": 3089,
      "抒": 3090,
      "抓": 3091,
      "投": 3092,
      "抖": 3093,
      "抗": 3094,
      "折": 3095,
      "抚": 3096,
      "抛": 3097,
      "抠": 3098,
      "抡": 3099,
      "抢": 3100,
      "护": 3101,
      "报": 3102,
      "抨": 3103,
      "披": 3104,
      "抬": 3105,
      "抰": 3106,
      "抱": 3107,
      "抵": 3108,
      "抹": 3109,
      "抻": 3110,
      "押": 3111,
      "抽": 3112,
      "抿": 3113,
      "拂": 3114,
      "拄": 3115,
      "担": 3116,
      "拆": 3117,
      "拇": 3118,
      "拈": 3119,
      "拉": 3120,
      "拋": 3121,
      "拌": 3122,
      "拍": 3123,
      "拎": 3124,
      "拐": 3125,
      "拒": 3126,
      "拓": 3127,
      "拔": 3128,
      "拖": 3129,
      "拗": 3130,
      "拘": 3131,
      "拙": 3132,
      "拚": 3133,
      "招": 3134,
      "拜": 3135,
      "拟": 3136,
      "拢": 3137,
      "拣": 3138,
      "拥": 3139,
      "拦": 3140,
      "拧": 3141,
      "拨": 3142,
      "择": 3143,
      "括": 3144,
      "拭": 3145,
      "拮": 3146,
      "拯": 3147,
      "拱": 3148,
      "拳": 3149,
      "拴": 3150,
      "拷": 3151,
      "拸": 3152,
      "拼": 3153,
      "拽": 3154,
      "拾": 3155,
      "拿": 3156,
      "持": 3157,
      "挂": 3158,
      "指": 3159,
      "挈": 3160,
      "按": 3161,
      "挎": 3162,
      "挑": 3163,
      "挖": 3164,
      "挚": 3165,
      "挛": 3166,
      "挝": 3167,
      "挞": 3168,
      "挟": 3169,
      "挠": 3170,
      "挡": 3171,
      "挣": 3172,
      "挤": 3173,
      "挥": 3174,
      "挨": 3175,
      "挪": 3176,
      "挫": 3177,
      "振": 3178,
      "挲": 3179,
      "挺": 3180,
      "挼": 3181,
      "挽": 3182,
      "挾": 3183,
      "捂": 3184,
      "捅": 3185,
      "捆": 3186,
      "捉": 3187,
      "捋": 3188,
      "捌": 3189,
      "捍": 3190,
      "捎": 3191,
      "捏": 3192,
      "捐": 3193,
      "捕": 3194,
      "捚": 3195,
      "捞": 3196,
      "损": 3197,
      "捡": 3198,
      "换": 3199,
      "捣": 3200,
      "捧": 3201,
      "捨": 3202,
      "捩": 3203,
      "捫": 3204,
      "据": 3205,
      "捱": 3206,
      "捲": 3207,
      "捶": 3208,
      "捷": 3209,
      "捻": 3210,
      "掀": 3211,
      "掂": 3212,
      "掃": 3213,
      "掇": 3214,
      "授": 3215,
      "掉": 3216,
      "掌": 3217,
      "掍": 3218,
      "掏": 3219,
      "掐": 3220,
      "排": 3221,
      "掖": 3222,
      "掗": 3223,
      "掘": 3224,
      "掙": 3225,
      "掛": 3226,
      "掠": 3227,
      "採": 3228,
      "探": 3229,
      "掣": 3230,
      "接": 3231,
      "控": 3232,
      "推": 3233,
      "掩": 3234,
      "措": 3235,
      "掬": 3236,
      "掮": 3237,
      "掰": 3238,
      "掳": 3239,
      "掴": 3240,
      "掷": 3241,
      "掸": 3242,
      "掺": 3243,
      "揀": 3244,
      "揄": 3245,
      "揉": 3246,
      "揌": 3247,
      "揍": 3248,
      "描": 3249,
      "提": 3250,
      "插": 3251,
      "揖": 3252,
      "揚": 3253,
      "換": 3254,
      "揝": 3255,
      "握": 3256,
      "揣": 3257,
      "揤": 3258,
      "揩": 3259,
      "揪": 3260,
      "揭": 3261,
      "揮": 3262,
      "援": 3263,
      "揶": 3264,
      "揸": 3265,
      "揹": 3266,
      "揽": 3267,
      "揾": 3268,
      "搀": 3269,
      "搁": 3270,
      "搂": 3271,
      "搅": 3272,
      "損": 3273,
      "搏": 3274,
      "搐": 3275,
      "搓": 3276,
      "搔": 3277,
      "搖": 3278,
      "搗": 3279,
      "搛": 3280,
      "搜": 3281,
      "搞": 3282,
      "搟": 3283,
      "搡": 3284,
      "搥": 3285,
      "搪": 3286,
      "搬": 3287,
      "搭": 3288,
      "搴": 3289,
      "搵": 3290,
      "搶": 3291,
      "携": 3292,
      "搽": 3293,
      "摀": 3294,
      "摁": 3295,
      "摂": 3296,
      "摄": 3297,
      "摆": 3298,
      "摇": 3299,
      "摈": 3300,
      "摊": 3301,
      "摒": 3302,
      "摔": 3303,
      "摘": 3304,
      "摟": 3305,
      "摧": 3306,
      "摩": 3307,
      "摯": 3308,
      "摸": 3309,
      "摹": 3310,
      "摺": 3311,
      "摻": 3312,
      "撂": 3313,
      "撅": 3314,
      "撇": 3315,
      "撈": 3316,
      "撐": 3317,
      "撑": 3318,
      "撒": 3319,
      "撓": 3320,
      "撕": 3321,
      "撙": 3322,
      "撞": 3323,
      "撣": 3324,
      "撤": 3325,
      "撥": 3326,
      "撩": 3327,
      "撫": 3328,
      "撬": 3329,
      "播": 3330,
      "撮": 3331,
      "撰": 3332,
      "撲": 3333,
      "撵": 3334,
      "撷": 3335,
      "撸": 3336,
      "撺": 3337,
      "撼": 3338,
      "撿": 3339,
      "擁": 3340,
      "擂": 3341,
      "擄": 3342,
      "擅": 3343,
      "擇": 3344,
      "擊": 3345,
      "擋": 3346,
      "操": 3347,
      "擎": 3348,
      "擒": 3349,
      "擔": 3350,
      "擘": 3351,
      "據": 3352,
      "擞": 3353,
      "擠": 3354,
      "擢": 3355,
      "擤": 3356,
      "擦": 3357,
      "擬": 3358,
      "擭": 3359,
      "擰": 3360,
      "擱": 3361,
      "擲": 3362,
      "擴": 3363,
      "擺": 3364,
      "擼": 3365,
      "擾": 3366,
      "攀": 3367,
      "攆": 3368,
      "攏": 3369,
      "攒": 3370,
      "攔": 3371,
      "攘": 3372,
      "攛": 3373,
      "攜": 3374,
      "攝": 3375,
      "攢": 3376,
      "攣": 3377,
      "攤": 3378,
      "攥": 3379,
      "攪": 3380,
      "攫": 3381,
      "攬": 3382,
      "支": 3383,
      "攰": 3384,
      "收": 3385,
      "攸": 3386,
      "改": 3387,
      "攻": 3388,
      "放": 3389,
      "政": 3390,
      "敃": 3391,
      "故": 3392,
      "效": 3393,
      "敌": 3394,
      "敏": 3395,
      "救": 3396,
      "敕": 3397,
      "敖": 3398,
      "敗": 3399,
      "敘": 3400,
      "教": 3401,
      "敛": 3402,
      "敝": 3403,
      "敞": 3404,
      "敢": 3405,
      "散": 3406,
      "敦": 3407,
      "敬": 3408,
      "数": 3409,
      "敲": 3410,
      "整": 3411,
      "敵": 3412,
      "敷": 3413,
      "數": 3414,
      "斂": 3415,
      "斃": 3416,
      "文": 3417,
      "斋": 3418,
      "斌": 3419,
      "斐": 3420,
      "斑": 3421,
      "斓": 3422,
      "斕": 3423,
      "斗": 3424,
      "料": 3425,
      "斛": 3426,
      "斜": 3427,
      "斟": 3428,
      "斡": 3429,
      "斤": 3430,
      "斥": 3431,
      "斧": 3432,
      "斩": 3433,
      "斬": 3434,
      "断": 3435,
      "斯": 3436,
      "新": 3437,
      "斷": 3438,
      "方": 3439,
      "於": 3440,
      "施": 3441,
      "旁": 3442,
      "旅": 3443,
      "旋": 3444,
      "旌": 3445,
      "旍": 3446,
      "族": 3447,
      "旗": 3448,
      "无": 3449,
      "既": 3450,
      "日": 3451,
      "旦": 3452,
      "旧": 3453,
      "旨": 3454,
      "早": 3455,
      "旬": 3456,
      "旭": 3457,
      "旮": 3458,
      "旯": 3459,
      "旰": 3460,
      "旱": 3461,
      "旳": 3462,
      "时": 3463,
      "旷": 3464,
      "旺": 3465,
      "昂": 3466,
      "昄": 3467,
      "昆": 3468,
      "昇": 3469,
      "昊": 3470,
      "昌": 3471,
      "明": 3472,
      "昏": 3473,
      "昒": 3474,
      "易": 3475,
      "昔": 3476,
      "昕": 3477,
      "昙": 3478,
      "昜": 3479,
      "星": 3480,
      "映": 3481,
      "昢": 3482,
      "春": 3483,
      "昧": 3484,
      "昨": 3485,
      "昫": 3486,
      "昭": 3487,
      "是": 3488,
      "昴": 3489,
      "昵": 3490,
      "昹": 3491,
      "昻": 3492,
      "昼": 3493,
      "显": 3494,
      "時": 3495,
      "晃": 3496,
      "晉": 3497,
      "晋": 3498,
      "晌": 3499,
      "晏": 3500,
      "晒": 3501,
      "晓": 3502,
      "晔": 3503,
      "晕": 3504,
      "晖": 3505,
      "晚": 3506,
      "晝": 3507,
      "晟": 3508,
      "晡": 3509,
      "晤": 3510,
      "晦": 3511,
      "晨": 3512,
      "普": 3513,
      "景": 3514,
      "晰": 3515,
      "晴": 3516,
      "晶": 3517,
      "智": 3518,
      "晾": 3519,
      "暂": 3520,
      "暄": 3521,
      "暇": 3522,
      "暈": 3523,
      "暉": 3524,
      "暍": 3525,
      "暑": 3526,
      "暖": 3527,
      "暗": 3528,
      "暢": 3529,
      "暧": 3530,
      "暨": 3531,
      "暫": 3532,
      "暮": 3533,
      "暴": 3534,
      "暹": 3535,
      "暺": 3536,
      "曆": 3537,
      "曉": 3538,
      "曖": 3539,
      "曙": 3540,
      "曝": 3541,
      "曠": 3542,
      "曦": 3543,
      "曬": 3544,
      "曰": 3545,
      "曲": 3546,
      "曳": 3547,
      "更": 3548,
      "書": 3549,
      "曹": 3550,
      "曼": 3551,
      "曾": 3552,
      "替": 3553,
      "最": 3554,
      "會": 3555,
      "月": 3556,
      "有": 3557,
      "朊": 3558,
      "朋": 3559,
      "服": 3560,
      "朔": 3561,
      "朕": 3562,
      "朗": 3563,
      "望": 3564,
      "朝": 3565,
      "期": 3566,
      "朦": 3567,
      "朧": 3568,
      "木": 3569,
      "未": 3570,
      "末": 3571,
      "本": 3572,
      "札": 3573,
      "朮": 3574,
      "术": 3575,
      "朱": 3576,
      "朴": 3577,
      "朵": 3578,
      "朶": 3579,
      "朸": 3580,
      "机": 3581,
      "朽": 3582,
      "杀": 3583,
      "杂": 3584,
      "权": 3585,
      "杅": 3586,
      "杆": 3587,
      "杈": 3588,
      "杉": 3589,
      "李": 3590,
      "杏": 3591,
      "材": 3592,
      "村": 3593,
      "杓": 3594,
      "杖": 3595,
      "杜": 3596,
      "杞": 3597,
      "束": 3598,
      "杠": 3599,
      "条": 3600,
      "来": 3601,
      "杨": 3602,
      "杭": 3603,
      "杯": 3604,
      "杰": 3605,
      "東": 3606,
      "杵": 3607,
      "杷": 3608,
      "杻": 3609,
      "松": 3610,
      "板": 3611,
      "极": 3612,
      "构": 3613,
      "枅": 3614,
      "枇": 3615,
      "枉": 3616,
      "析": 3617,
      "枑": 3618,
      "枕": 3619,
      "林": 3620,
      "枙": 3621,
      "枚": 3622,
      "果": 3623,
      "枝": 3624,
      "枞": 3625,
      "枢": 3626,
      "枣": 3627,
      "枪": 3628,
      "枫": 3629,
      "枭": 3630,
      "枯": 3631,
      "枱": 3632,
      "枴": 3633,
      "架": 3634,
      "枷": 3635,
      "枸": 3636,
      "柁": 3637,
      "柄": 3638,
      "柊": 3639,
      "柏": 3640,
      "某": 3641,
      "柑": 3642,
      "柒": 3643,
      "染": 3644,
      "柔": 3645,
      "柚": 3646,
      "柜": 3647,
      "柠": 3648,
      "柢": 3649,
      "查": 3650,
      "柩": 3651,
      "柬": 3652,
      "柯": 3653,
      "柰": 3654,
      "柱": 3655,
      "柲": 3656,
      "柳": 3657,
      "柴": 3658,
      "柵": 3659,
      "柽": 3660,
      "柿": 3661,
      "栀": 3662,
      "栅": 3663,
      "标": 3664,
      "栈": 3665,
      "栉": 3666,
      "栋": 3667,
      "栎": 3668,
      "栏": 3669,
      "树": 3670,
      "栓": 3671,
      "栖": 3672,
      "栗": 3673,
      "栠": 3674,
      "校": 3675,
      "栩": 3676,
      "株": 3677,
      "样": 3678,
      "核": 3679,
      "根": 3680,
      "格": 3681,
      "栽": 3682,
      "桀": 3683,
      "桂": 3684,
      "桃": 3685,
      "桅": 3686,
      "框": 3687,
      "案": 3688,
      "桉": 3689,
      "桌": 3690,
      "桎": 3691,
      "桐": 3692,
      "桑": 3693,
      "桓": 3694,
      "桔": 3695,
      "桖": 3696,
      "桜": 3697,
      "桡": 3698,
      "桢": 3699,
      "档": 3700,
      "桥": 3701,
      "桦": 3702,
      "桧": 3703,
      "桨": 3704,
      "桩": 3705,
      "桯": 3706,
      "桲": 3707,
      "桴": 3708,
      "桵": 3709,
      "桶": 3710,
      "桽": 3711,
      "桿": 3712,
      "梁": 3713,
      "梅": 3714,
      "梆": 3715,
      "梏": 3716,
      "梑": 3717,
      "梒": 3718,
      "梓": 3719,
      "梗": 3720,
      "條": 3721,
      "梢": 3722,
      "梦": 3723,
      "梧": 3724,
      "梨": 3725,
      "梭": 3726,
      "梯": 3727,
      "械": 3728,
      "梳": 3729,
      "梵": 3730,
      "检": 3731,
      "棄": 3732,
      "棉": 3733,
      "棋": 3734,
      "棍": 3735,
      "棒": 3736,
      "棕": 3737,
      "棗": 3738,
      "棘": 3739,
      "棚": 3740,
      "棟": 3741,
      "棠": 3742,
      "棣": 3743,
      "森": 3744,
      "棱": 3745,
      "棲": 3746,
      "棵": 3747,
      "棺": 3748,
      "椄": 3749,
      "椅": 3750,
      "椋": 3751,
      "植": 3752,
      "椎": 3753,
      "椐": 3754,
      "椒": 3755,
      "椤": 3756,
      "椭": 3757,
      "椰": 3758,
      "椿": 3759,
      "楂": 3760,
      "楊": 3761,
      "楓": 3762,
      "楔": 3763,
      "楚": 3764,
      "楛": 3765,
      "楝": 3766,
      "楞": 3767,
      "楠": 3768,
      "楢": 3769,
      "楣": 3770,
      "楦": 3771,
      "楨": 3772,
      "業": 3773,
      "極": 3774,
      "楷": 3775,
      "楸": 3776,
      "楼": 3777,
      "概": 3778,
      "榄": 3779,
      "榅": 3780,
      "榆": 3781,
      "榈": 3782,
      "榉": 3783,
      "榔": 3784,
      "榕": 3785,
      "榘": 3786,
      "榛": 3787,
      "榜": 3788,
      "榨": 3789,
      "榭": 3790,
      "榮": 3791,
      "榴": 3792,
      "榷": 3793,
      "榻": 3794,
      "槁": 3795,
      "槃": 3796,
      "構": 3797,
      "槌": 3798,
      "槍": 3799,
      "槐": 3800,
      "槓": 3801,
      "槙": 3802,
      "槛": 3803,
      "槟": 3804,
      "槨": 3805,
      "槲": 3806,
      "槳": 3807,
      "槽": 3808,
      "槿": 3809,
      "樁": 3810,
      "樂": 3811,
      "樊": 3812,
      "樑": 3813,
      "樓": 3814,
      "標": 3815,
      "樞": 3816,
      "樟": 3817,
      "模": 3818,
      "樣": 3819,
      "横": 3820,
      "樱": 3821,
      "樵": 3822,
      "樸": 3823,
      "樹": 3824,
      "樺": 3825,
      "樽": 3826,
      "橄": 3827,
      "橇": 3828,
      "橈": 3829,
      "橋": 3830,
      "橔": 3831,
      "橘": 3832,
      "橙": 3833,
      "機": 3834,
      "橡": 3835,
      "橢": 3836,
      "橥": 3837,
      "橫": 3838,
      "橱": 3839,
      "橵": 3840,
      "橼": 3841,
      "橾": 3842,
      "檀": 3843,
      "檐": 3844,
      "檔": 3845,
      "檞": 3846,
      "檢": 3847,
      "檫": 3848,
      "檬": 3849,
      "檯": 3850,
      "檳": 3851,
      "檸": 3852,
      "櫃": 3853,
      "櫈": 3854,
      "櫚": 3855,
      "櫥": 3856,
      "櫻": 3857,
      "欄": 3858,
      "權": 3859,
      "欑": 3860,
      "欖": 3861,
      "欠": 3862,
      "次": 3863,
      "欢": 3864,
      "欣": 3865,
      "欧": 3866,
      "欲": 3867,
      "欴": 3868,
      "欸": 3869,
      "欺": 3870,
      "欽": 3871,
      "款": 3872,
      "歃": 3873,
      "歆": 3874,
      "歇": 3875,
      "歉": 3876,
      "歌": 3877,
      "歎": 3878,
      "歐": 3879,
      "歛": 3880,
      "歡": 3881,
      "止": 3882,
      "正": 3883,
      "此": 3884,
      "步": 3885,
      "武": 3886,
      "歧": 3887,
      "歪": 3888,
      "歲": 3889,
      "歷": 3890,
      "歸": 3891,
      "歹": 3892,
      "死": 3893,
      "歼": 3894,
      "殃": 3895,
      "殄": 3896,
      "殆": 3897,
      "殉": 3898,
      "殊": 3899,
      "残": 3900,
      "殒": 3901,
      "殓": 3902,
      "殖": 3903,
      "殘": 3904,
      "殛": 3905,
      "殡": 3906,
      "殭": 3907,
      "殲": 3908,
      "殴": 3909,
      "段": 3910,
      "殷": 3911,
      "殺": 3912,
      "殻": 3913,
      "殼": 3914,
      "殿": 3915,
      "毀": 3916,
      "毁": 3917,
      "毂": 3918,
      "毅": 3919,
      "毆": 3920,
      "毋": 3921,
      "母": 3922,
      "毎": 3923,
      "每": 3924,
      "毒": 3925,
      "毓": 3926,
      "比": 3927,
      "毕": 3928,
      "毖": 3929,
      "毗": 3930,
      "毙": 3931,
      "毚": 3932,
      "毛": 3933,
      "毞": 3934,
      "毡": 3935,
      "毫": 3936,
      "毯": 3937,
      "毽": 3938,
      "氏": 3939,
      "氐": 3940,
      "民": 3941,
      "氓": 3942,
      "气": 3943,
      "氖": 3944,
      "氘": 3945,
      "氙": 3946,
      "氚": 3947,
      "氛": 3948,
      "氟": 3949,
      "氡": 3950,
      "氢": 3951,
      "氣": 3952,
      "氦": 3953,
      "氧": 3954,
      "氨": 3955,
      "氩": 3956,
      "氪": 3957,
      "氫": 3958,
      "氮": 3959,
      "氯": 3960,
      "氰": 3961,
      "水": 3962,
      "永": 3963,
      "氹": 3964,
      "汀": 3965,
      "汁": 3966,
      "求": 3967,
      "汇": 3968,
      "汉": 3969,
      "汐": 3970,
      "汔": 3971,
      "汗": 3972,
      "汜": 3973,
      "汝": 3974,
      "汞": 3975,
      "江": 3976,
      "池": 3977,
      "污": 3978,
      "汤": 3979,
      "汩": 3980,
      "汪": 3981,
      "汰": 3982,
      "汲": 3983,
      "汴": 3984,
      "汶": 3985,
      "汹": 3986,
      "決": 3987,
      "汽": 3988,
      "汾": 3989,
      "沁": 3990,
      "沂": 3991,
      "沃": 3992,
      "沅": 3993,
      "沆": 3994,
      "沈": 3995,
      "沉": 3996,
      "沌": 3997,
      "沏": 3998,
      "沐": 3999,
      "沒": 4000,
      "沓": 4001,
      "沖": 4002,
      "沙": 4003,
      "沛": 4004,
      "沟": 4005,
      "没": 4006,
      "沢": 4007,
      "沣": 4008,
      "沤": 4009,
      "沥": 4010,
      "沦": 4011,
      "沧": 4012,
      "沫": 4013,
      "沬": 4014,
      "沭": 4015,
      "沮": 4016,
      "沱": 4017,
      "河": 4018,
      "沸": 4019,
      "油": 4020,
      "治": 4021,
      "沼": 4022,
      "沽": 4023,
      "沾": 4024,
      "沿": 4025,
      "況": 4026,
      "泂": 4027,
      "泄": 4028,
      "泅": 4029,
      "泉": 4030,
      "泊": 4031,
      "泌": 4032,
      "泐": 4033,
      "泔": 4034,
      "法": 4035,
      "泗": 4036,
      "泛": 4037,
      "泞": 4038,
      "泠": 4039,
      "泡": 4040,
      "波": 4041,
      "泣": 4042,
      "泥": 4043,
      "注": 4044,
      "泪": 4045,
      "泭": 4046,
      "泮": 4047,
      "泯": 4048,
      "泰": 4049,
      "泱": 4050,
      "泳": 4051,
      "泵": 4052,
      "泷": 4053,
      "泻": 4054,
      "泼": 4055,
      "泽": 4056,
      "泾": 4057,
      "洁": 4058,
      "洄": 4059,
      "洇": 4060,
      "洋": 4061,
      "洒": 4062,
      "洗": 4063,
      "洙": 4064,
      "洛": 4065,
      "洞": 4066,
      "津": 4067,
      "洩": 4068,
      "洪": 4069,
      "洮": 4070,
      "洱": 4071,
      "洲": 4072,
      "洶": 4073,
      "洷": 4074,
      "活": 4075,
      "洼": 4076,
      "洽": 4077,
      "派": 4078,
      "流": 4079,
      "浃": 4080,
      "浅": 4081,
      "浆": 4082,
      "浇": 4083,
      "浊": 4084,
      "测": 4085,
      "浍": 4086,
      "济": 4087,
      "浏": 4088,
      "浑": 4089,
      "浒": 4090,
      "浓": 4091,
      "浙": 4092,
      "浚": 4093,
      "浣": 4094,
      "浦": 4095,
      "浩": 4096,
      "浪": 4097,
      "浬": 4098,
      "浮": 4099,
      "浯": 4100,
      "浴": 4101,
      "海": 4102,
      "浸": 4103,
      "涂": 4104,
      "涅": 4105,
      "消": 4106,
      "涉": 4107,
      "涌": 4108,
      "涎": 4109,
      "涓": 4110,
      "涕": 4111,
      "涛": 4112,
      "涝": 4113,
      "涟": 4114,
      "涡": 4115,
      "涣": 4116,
      "涤": 4117,
      "润": 4118,
      "涧": 4119,
      "涨": 4120,
      "涩": 4121,
      "涮": 4122,
      "涯": 4123,
      "液": 4124,
      "涴": 4125,
      "涵": 4126,
      "涸": 4127,
      "涼": 4128,
      "淀": 4129,
      "淅": 4130,
      "淆": 4131,
      "淇": 4132,
      "淊": 4133,
      "淋": 4134,
      "淌": 4135,
      "淏": 4136,
      "淑": 4137,
      "淖": 4138,
      "淘": 4139,
      "淚": 4140,
      "淡": 4141,
      "淤": 4142,
      "淨": 4143,
      "淩": 4144,
      "淪": 4145,
      "淫": 4146,
      "淬": 4147,
      "淮": 4148,
      "深": 4149,
      "淳": 4150,
      "淵": 4151,
      "混": 4152,
      "淹": 4153,
      "淺": 4154,
      "添": 4155,
      "渀": 4156,
      "清": 4157,
      "渊": 4158,
      "渍": 4159,
      "渎": 4160,
      "渐": 4161,
      "渔": 4162,
      "渗": 4163,
      "渙": 4164,
      "渚": 4165,
      "減": 4166,
      "渝": 4167,
      "渠": 4168,
      "渡": 4169,
      "渣": 4170,
      "渤": 4171,
      "渥": 4172,
      "渦": 4173,
      "渧": 4174,
      "温": 4175,
      "測": 4176,
      "渭": 4177,
      "港": 4178,
      "渲": 4179,
      "渴": 4180,
      "游": 4181,
      "渺": 4182,
      "渾": 4183,
      "湃": 4184,
      "湄": 4185,
      "湊": 4186,
      "湍": 4187,
      "湎": 4188,
      "湔": 4189,
      "湖": 4190,
      "湘": 4191,
      "湛": 4192,
      "湧": 4193,
      "湮": 4194,
      "湯": 4195,
      "湴": 4196,
      "湾": 4197,
      "湿": 4198,
      "溃": 4199,
      "溅": 4200,
      "溉": 4201,
      "溏": 4202,
      "源": 4203,
      "準": 4204,
      "溘": 4205,
      "溜": 4206,
      "溝": 4207,
      "溢": 4208,
      "溥": 4209,
      "溪": 4210,
      "溫": 4211,
      "溯": 4212,
      "溴": 4213,
      "溶": 4214,
      "溷": 4215,
      "溺": 4216,
      "溼": 4217,
      "滂": 4218,
      "滅": 4219,
      "滇": 4220,
      "滋": 4221,
      "滌": 4222,
      "滑": 4223,
      "滓": 4224,
      "滔": 4225,
      "滕": 4226,
      "滚": 4227,
      "滞": 4228,
      "满": 4229,
      "滤": 4230,
      "滥": 4231,
      "滨": 4232,
      "滩": 4233,
      "滯": 4234,
      "滲": 4235,
      "滴": 4236,
      "滾": 4237,
      "滿": 4238,
      "漁": 4239,
      "漂": 4240,
      "漆": 4241,
      "漉": 4242,
      "漏": 4243,
      "漒": 4244,
      "漓": 4245,
      "演": 4246,
      "漠": 4247,
      "漢": 4248,
      "漩": 4249,
      "漪": 4250,
      "漫": 4251,
      "漬": 4252,
      "漯": 4253,
      "漱": 4254,
      "漲": 4255,
      "漸": 4256,
      "漾": 4257,
      "漿": 4258,
      "潇": 4259,
      "潑": 4260,
      "潔": 4261,
      "潘": 4262,
      "潛": 4263,
      "潜": 4264,
      "潠": 4265,
      "潢": 4266,
      "潤": 4267,
      "潦": 4268,
      "潭": 4269,
      "潮": 4270,
      "潰": 4271,
      "潸": 4272,
      "潺": 4273,
      "澄": 4274,
      "澆": 4275,
      "澈": 4276,
      "澎": 4277,
      "澜": 4278,
      "澡": 4279,
      "澤": 4280,
      "澪": 4281,
      "澳": 4282,
      "澹": 4283,
      "激": 4284,
      "濁": 4285,
      "濂": 4286,
      "濃": 4287,
      "濑": 4288,
      "濒": 4289,
      "濕": 4290,
      "濘": 4291,
      "濛": 4292,
      "濟": 4293,
      "濡": 4294,
      "濤": 4295,
      "濫": 4296,
      "濬": 4297,
      "濮": 4298,
      "濯": 4299,
      "濱": 4300,
      "濺": 4301,
      "濾": 4302,
      "瀆": 4303,
      "瀏": 4304,
      "瀑": 4305,
      "瀕": 4306,
      "瀚": 4307,
      "瀝": 4308,
      "瀟": 4309,
      "瀣": 4310,
      "瀬": 4311,
      "瀰": 4312,
      "灌": 4313,
      "灑": 4314,
      "灘": 4315,
      "灣": 4316,
      "火": 4317,
      "灭": 4318,
      "灯": 4319,
      "灰": 4320,
      "灵": 4321,
      "灶": 4322,
      "灸": 4323,
      "灼": 4324,
      "災": 4325,
      "灾": 4326,
      "灿": 4327,
      "炆": 4328,
      "炉": 4329,
      "炊": 4330,
      "炎": 4331,
      "炒": 4332,
      "炔": 4333,
      "炕": 4334,
      "炖": 4335,
      "炙": 4336,
      "炜": 4337,
      "炫": 4338,
      "炬": 4339,
      "炭": 4340,
      "炮": 4341,
      "炯": 4342,
      "炰": 4343,
      "炳": 4344,
      "炵": 4345,
      "炷": 4346,
      "炸": 4347,
      "点": 4348,
      "為": 4349,
      "炼": 4350,
      "炽": 4351,
      "烁": 4352,
      "烂": 4353,
      "烃": 4354,
      "烈": 4355,
      "烊": 4356,
      "烏": 4357,
      "烘": 4358,
      "烙": 4359,
      "烛": 4360,
      "烟": 4361,
      "烤": 4362,
      "烦": 4363,
      "烧": 4364,
      "烩": 4365,
      "烫": 4366,
      "烬": 4367,
      "热": 4368,
      "烯": 4369,
      "烷": 4370,
      "烹": 4371,
      "烽": 4372,
      "焉": 4373,
      "焊": 4374,
      "焕": 4375,
      "焖": 4376,
      "焗": 4377,
      "焙": 4378,
      "焚": 4379,
      "無": 4380,
      "焦": 4381,
      "焰": 4382,
      "然": 4383,
      "煅": 4384,
      "煉": 4385,
      "煌": 4386,
      "煎": 4387,
      "煖": 4388,
      "煙": 4389,
      "煞": 4390,
      "煤": 4391,
      "煥": 4392,
      "煦": 4393,
      "照": 4394,
      "煨": 4395,
      "煩": 4396,
      "煭": 4397,
      "煮": 4398,
      "煲": 4399,
      "煸": 4400,
      "煽": 4401,
      "熄": 4402,
      "熊": 4403,
      "熏": 4404,
      "熔": 4405,
      "熙": 4406,
      "熟": 4407,
      "熠": 4408,
      "熨": 4409,
      "熬": 4410,
      "熱": 4411,
      "熵": 4412,
      "熹": 4413,
      "燃": 4414,
      "燄": 4415,
      "燈": 4416,
      "燉": 4417,
      "燎": 4418,
      "燒": 4419,
      "燕": 4420,
      "燙": 4421,
      "營": 4422,
      "燠": 4423,
      "燥": 4424,
      "燦": 4425,
      "燧": 4426,
      "燬": 4427,
      "燭": 4428,
      "燮": 4429,
      "燴": 4430,
      "燻": 4431,
      "燼": 4432,
      "爆": 4433,
      "爍": 4434,
      "爐": 4435,
      "爛": 4436,
      "爪": 4437,
      "爬": 4438,
      "爭": 4439,
      "爱": 4440,
      "爲": 4441,
      "爵": 4442,
      "父": 4443,
      "爷": 4444,
      "爸": 4445,
      "爹": 4446,
      "爺": 4447,
      "爽": 4448,
      "爾": 4449,
      "牀": 4450,
      "牆": 4451,
      "片": 4452,
      "版": 4453,
      "牌": 4454,
      "牍": 4455,
      "牒": 4456,
      "牙": 4457,
      "牛": 4458,
      "牟": 4459,
      "牠": 4460,
      "牡": 4461,
      "牢": 4462,
      "牦": 4463,
      "牧": 4464,
      "物": 4465,
      "牲": 4466,
      "牵": 4467,
      "特": 4468,
      "牺": 4469,
      "牽": 4470,
      "犀": 4471,
      "犁": 4472,
      "犄": 4473,
      "犊": 4474,
      "犒": 4475,
      "犖": 4476,
      "犢": 4477,
      "犧": 4478,
      "犬": 4479,
      "犭": 4480,
      "犯": 4481,
      "犰": 4482,
      "状": 4483,
      "犸": 4484,
      "犹": 4485,
      "狀": 4486,
      "狂": 4487,
      "狄": 4488,
      "狈": 4489,
      "狍": 4490,
      "狎": 4491,
      "狐": 4492,
      "狒": 4493,
      "狓": 4494,
      "狗": 4495,
      "狙": 4496,
      "狝": 4497,
      "狞": 4498,
      "狟": 4499,
      "狠": 4500,
      "狡": 4501,
      "狥": 4502,
      "狦": 4503,
      "狨": 4504,
      "狩": 4505,
      "独": 4506,
      "狭": 4507,
      "狮": 4508,
      "狰": 4509,
      "狱": 4510,
      "狲": 4511,
      "狳": 4512,
      "狵": 4513,
      "狶": 4514,
      "狸": 4515,
      "狹": 4516,
      "狻": 4517,
      "狼": 4518,
      "狽": 4519,
      "狾": 4520,
      "狿": 4521,
      "猁": 4522,
      "猂": 4523,
      "猅": 4524,
      "猋": 4525,
      "猌": 4526,
      "猎": 4527,
      "猓": 4528,
      "猔": 4529,
      "猕": 4530,
      "猖": 4531,
      "猘": 4532,
      "猛": 4533,
      "猜": 4534,
      "猝": 4535,
      "猞": 4536,
      "猟": 4537,
      "猠": 4538,
      "猡": 4539,
      "猢": 4540,
      "猥": 4541,
      "猧": 4542,
      "猩": 4543,
      "猪": 4544,
      "猫": 4545,
      "猬": 4546,
      "猭": 4547,
      "献": 4548,
      "猳": 4549,
      "猴": 4550,
      "猵": 4551,
      "猶": 4552,
      "猾": 4553,
      "猿": 4554,
      "獀": 4555,
      "獁": 4556,
      "獃": 4557,
      "獄": 4558,
      "獅": 4559,
      "獎": 4560,
      "獗": 4561,
      "獠": 4562,
      "獨": 4563,
      "獭": 4564,
      "獰": 4565,
      "獲": 4566,
      "獴": 4567,
      "獵": 4568,
      "獶": 4569,
      "獸": 4570,
      "獹": 4571,
      "獺": 4572,
      "獻": 4573,
      "獽": 4574,
      "獾": 4575,
      "獿": 4576,
      "玂": 4577,
      "玄": 4578,
      "玅": 4579,
      "玆": 4580,
      "率": 4581,
      "玉": 4582,
      "玊": 4583,
      "王": 4584,
      "玌": 4585,
      "玍": 4586,
      "玐": 4587,
      "玒": 4588,
      "玙": 4589,
      "玛": 4590,
      "玜": 4591,
      "玡": 4592,
      "玥": 4593,
      "玦": 4594,
      "玨": 4595,
      "玩": 4596,
      "玪": 4597,
      "玫": 4598,
      "玭": 4599,
      "玮": 4600,
      "环": 4601,
      "现": 4602,
      "玱": 4603,
      "玲": 4604,
      "玳": 4605,
      "玴": 4606,
      "玵": 4607,
      "玶": 4608,
      "玷": 4609,
      "玺": 4610,
      "玻": 4611,
      "玼": 4612,
      "玾": 4613,
      "珀": 4614,
      "珂": 4615,
      "珃": 4616,
      "珅": 4617,
      "珆": 4618,
      "珇": 4619,
      "珈": 4620,
      "珉": 4621,
      "珊": 4622,
      "珋": 4623,
      "珍": 4624,
      "珏": 4625,
      "珑": 4626,
      "珗": 4627,
      "珠": 4628,
      "珥": 4629,
      "珧": 4630,
      "珨": 4631,
      "珩": 4632,
      "班": 4633,
      "珮": 4634,
      "珹": 4635,
      "珼": 4636,
      "現": 4637,
      "珿": 4638,
      "琁": 4639,
      "球": 4640,
      "琄": 4641,
      "琅": 4642,
      "理": 4643,
      "琉": 4644,
      "琌": 4645,
      "琍": 4646,
      "琎": 4647,
      "琐": 4648,
      "琕": 4649,
      "琘": 4650,
      "琛": 4651,
      "琜": 4652,
      "琢": 4653,
      "琥": 4654,
      "琦": 4655,
      "琩": 4656,
      "琪": 4657,
      "琰": 4658,
      "琳": 4659,
      "琴": 4660,
      "琵": 4661,
      "琶": 4662,
      "琼": 4663,
      "琾": 4664,
      "琿": 4665,
      "瑀": 4666,
      "瑁": 4667,
      "瑅": 4668,
      "瑆": 4669,
      "瑇": 4670,
      "瑈": 4671,
      "瑌": 4672,
      "瑍": 4673,
      "瑕": 4674,
      "瑗": 4675,
      "瑙": 4676,
      "瑚": 4677,
      "瑛": 4678,
      "瑜": 4679,
      "瑞": 4680,
      "瑟": 4681,
      "瑠": 4682,
      "瑩": 4683,
      "瑪": 4684,
      "瑯": 4685,
      "瑰": 4686,
      "瑶": 4687,
      "瑻": 4688,
      "瑼": 4689,
      "瑾": 4690,
      "瑿": 4691,
      "璀": 4692,
      "璂": 4693,
      "璃": 4694,
      "璅": 4695,
      "璆": 4696,
      "璇": 4697,
      "璉": 4698,
      "璊": 4699,
      "璍": 4700,
      "璐": 4701,
      "璑": 4702,
      "璓": 4703,
      "璗": 4704,
      "璚": 4705,
      "璛": 4706,
      "璜": 4707,
      "璝": 4708,
      "璞": 4709,
      "璣": 4710,
      "璦": 4711,
      "璧": 4712,
      "璨": 4713,
      "璭": 4714,
      "璮": 4715,
      "環": 4716,
      "璱": 4717,
      "璵": 4718,
      "璶": 4719,
      "璸": 4720,
      "璹": 4721,
      "璼": 4722,
      "璽": 4723,
      "瓀": 4724,
      "瓁": 4725,
      "瓂": 4726,
      "瓃": 4727,
      "瓆": 4728,
      "瓊": 4729,
      "瓒": 4730,
      "瓜": 4731,
      "瓠": 4732,
      "瓢": 4733,
      "瓣": 4734,
      "瓦": 4735,
      "瓮": 4736,
      "瓳": 4737,
      "瓶": 4738,
      "瓷": 4739,
      "瓸": 4740,
      "瓿": 4741,
      "甀": 4742,
      "甁": 4743,
      "甃": 4744,
      "甄": 4745,
      "甅": 4746,
      "甉": 4747,
      "甊": 4748,
      "甘": 4749,
      "甚": 4750,
      "甜": 4751,
      "甝": 4752,
      "生": 4753,
      "甡": 4754,
      "產": 4755,
      "産": 4756,
      "甤": 4757,
      "甥": 4758,
      "甦": 4759,
      "甧": 4760,
      "用": 4761,
      "甩": 4762,
      "甪": 4763,
      "甫": 4764,
      "甬": 4765,
      "甭": 4766,
      "甮": 4767,
      "田": 4768,
      "由": 4769,
      "甲": 4770,
      "申": 4771,
      "电": 4772,
      "甶": 4773,
      "男": 4774,
      "甸": 4775,
      "町": 4776,
      "画": 4777,
      "畀": 4778,
      "畃": 4779,
      "畄": 4780,
      "畅": 4781,
      "畉": 4782,
      "界": 4783,
      "畍": 4784,
      "畏": 4785,
      "畐": 4786,
      "畑": 4787,
      "畒": 4788,
      "畓": 4789,
      "畔": 4790,
      "畕": 4791,
      "留": 4792,
      "畜": 4793,
      "畝": 4794,
      "畟": 4795,
      "畢": 4796,
      "略": 4797,
      "番": 4798,
      "畫": 4799,
      "異": 4800,
      "畴": 4801,
      "當": 4802,
      "畸": 4803,
      "畿": 4804,
      "疆": 4805,
      "疉": 4806,
      "疊": 4807,
      "疍": 4808,
      "疏": 4809,
      "疑": 4810,
      "疖": 4811,
      "疗": 4812,
      "疙": 4813,
      "疚": 4814,
      "疝": 4815,
      "疟": 4816,
      "疡": 4817,
      "疤": 4818,
      "疥": 4819,
      "疦": 4820,
      "疩": 4821,
      "疫": 4822,
      "疭": 4823,
      "疮": 4824,
      "疯": 4825,
      "疱": 4826,
      "疲": 4827,
      "疵": 4828,
      "疶": 4829,
      "疸": 4830,
      "疹": 4831,
      "疻": 4832,
      "疼": 4833,
      "疽": 4834,
      "疾": 4835,
      "痁": 4836,
      "痂": 4837,
      "痄": 4838,
      "病": 4839,
      "症": 4840,
      "痈": 4841,
      "痉": 4842,
      "痊": 4843,
      "痌": 4844,
      "痍": 4845,
      "痒": 4846,
      "痔": 4847,
      "痕": 4848,
      "痘": 4849,
      "痙": 4850,
      "痚": 4851,
      "痛": 4852,
      "痜": 4853,
      "痝": 4854,
      "痞": 4855,
      "痠": 4856,
      "痢": 4857,
      "痣": 4858,
      "痨": 4859,
      "痪": 4860,
      "痫": 4861,
      "痮": 4862,
      "痰": 4863,
      "痲": 4864,
      "痴": 4865,
      "痷": 4866,
      "痸": 4867,
      "痹": 4868,
      "痺": 4869,
      "痻": 4870,
      "痼": 4871,
      "痾": 4872,
      "痿": 4873,
      "瘀": 4874,
      "瘁": 4875,
      "瘂": 4876,
      "瘆": 4877,
      "瘋": 4878,
      "瘍": 4879,
      "瘓": 4880,
      "瘘": 4881,
      "瘙": 4882,
      "瘜": 4883,
      "瘟": 4884,
      "瘠": 4885,
      "瘡": 4886,
      "瘤": 4887,
      "瘦": 4888,
      "瘧": 4889,
      "瘩": 4890,
      "瘪": 4891,
      "瘫": 4892,
      "瘴": 4893,
      "瘸": 4894,
      "瘾": 4895,
      "療": 4896,
      "癌": 4897,
      "癐": 4898,
      "癑": 4899,
      "癒": 4900,
      "癔": 4901,
      "癖": 4902,
      "癘": 4903,
      "癚": 4904,
      "癛": 4905,
      "癞": 4906,
      "癟": 4907,
      "癠": 4908,
      "癡": 4909,
      "癢": 4910,
      "癣": 4911,
      "癥": 4912,
      "癩": 4913,
      "癫": 4914,
      "癬": 4915,
      "癮": 4916,
      "癱": 4917,
      "癲": 4918,
      "癳": 4919,
      "癵": 4920,
      "癶": 4921,
      "癸": 4922,
      "癹": 4923,
      "発": 4924,
      "登": 4925,
      "發": 4926,
      "白": 4927,
      "百": 4928,
      "皁": 4929,
      "皂": 4930,
      "皃": 4931,
      "的": 4932,
      "皆": 4933,
      "皇": 4934,
      "皈": 4935,
      "皊": 4936,
      "皌": 4937,
      "皎": 4938,
      "皐": 4939,
      "皑": 4940,
      "皓": 4941,
      "皗": 4942,
      "皘": 4943,
      "皙": 4944,
      "皛": 4945,
      "皮": 4946,
      "皱": 4947,
      "皺": 4948,
      "皿": 4949,
      "盂": 4950,
      "盃": 4951,
      "盅": 4952,
      "盆": 4953,
      "盈": 4954,
      "盉": 4955,
      "益": 4956,
      "盋": 4957,
      "盌": 4958,
      "盎": 4959,
      "盏": 4960,
      "盐": 4961,
      "监": 4962,
      "盒": 4963,
      "盓": 4964,
      "盔": 4965,
      "盕": 4966,
      "盖": 4967,
      "盗": 4968,
      "盘": 4969,
      "盚": 4970,
      "盛": 4971,
      "盜": 4972,
      "盞": 4973,
      "盟": 4974,
      "盠": 4975,
      "盡": 4976,
      "盢": 4977,
      "監": 4978,
      "盤": 4979,
      "盥": 4980,
      "盧": 4981,
      "盪": 4982,
      "目": 4983,
      "盯": 4984,
      "盰": 4985,
      "盲": 4986,
      "直": 4987,
      "相": 4988,
      "盹": 4989,
      "盼": 4990,
      "盽": 4991,
      "盾": 4992,
      "盿": 4993,
      "眀": 4994,
      "省": 4995,
      "眃": 4996,
      "眅": 4997,
      "眈": 4998,
      "眉": 4999,
      "眊": 5000,
      "看": 5001,
      "眎": 5002,
      "眏": 5003,
      "眒": 5004,
      "眔": 5005,
      "眕": 5006,
      "眖": 5007,
      "眙": 5008,
      "眞": 5009,
      "真": 5010,
      "眠": 5011,
      "眢": 5012,
      "眣": 5013,
      "眤": 5014,
      "眦": 5015,
      "眨": 5016,
      "眩": 5017,
      "眭": 5018,
      "眯": 5019,
      "眳": 5020,
      "眶": 5021,
      "眷": 5022,
      "眸": 5023,
      "眺": 5024,
      "眻": 5025,
      "眼": 5026,
      "眾": 5027,
      "着": 5028,
      "睁": 5029,
      "睆": 5030,
      "睇": 5031,
      "睌": 5032,
      "睐": 5033,
      "睑": 5034,
      "睚": 5035,
      "睛": 5036,
      "睜": 5037,
      "睝": 5038,
      "睡": 5039,
      "睢": 5040,
      "督": 5041,
      "睤": 5042,
      "睦": 5043,
      "睪": 5044,
      "睫": 5045,
      "睬": 5046,
      "睭": 5047,
      "睱": 5048,
      "睲": 5049,
      "睵": 5050,
      "睹": 5051,
      "睼": 5052,
      "睽": 5053,
      "睾": 5054,
      "睿": 5055,
      "瞄": 5056,
      "瞅": 5057,
      "瞇": 5058,
      "瞈": 5059,
      "瞉": 5060,
      "瞊": 5061,
      "瞋": 5062,
      "瞌": 5063,
      "瞎": 5064,
      "瞏": 5065,
      "瞑": 5066,
      "瞒": 5067,
      "瞝": 5068,
      "瞞": 5069,
      "瞟": 5070,
      "瞠": 5071,
      "瞡": 5072,
      "瞥": 5073,
      "瞦": 5074,
      "瞧": 5075,
      "瞨": 5076,
      "瞩": 5077,
      "瞪": 5078,
      "瞬": 5079,
      "瞭": 5080,
      "瞯": 5081,
      "瞰": 5082,
      "瞳": 5083,
      "瞴": 5084,
      "瞶": 5085,
      "瞷": 5086,
      "瞺": 5087,
      "瞻": 5088,
      "瞼": 5089,
      "矇": 5090,
      "矓": 5091,
      "矗": 5092,
      "矚": 5093,
      "矛": 5094,
      "矜": 5095,
      "矢": 5096,
      "矣": 5097,
      "知": 5098,
      "矩": 5099,
      "矪": 5100,
      "矫": 5101,
      "短": 5102,
      "矮": 5103,
      "矯": 5104,
      "石": 5105,
      "矶": 5106,
      "矹": 5107,
      "矽": 5108,
      "矾": 5109,
      "矿": 5110,
      "码": 5111,
      "砂": 5112,
      "砃": 5113,
      "砆": 5114,
      "砈": 5115,
      "砉": 5116,
      "砊": 5117,
      "砋": 5118,
      "砌": 5119,
      "砍": 5120,
      "砏": 5121,
      "砐": 5122,
      "砑": 5123,
      "砒": 5124,
      "砓": 5125,
      "研": 5126,
      "砕": 5127,
      "砖": 5128,
      "砘": 5129,
      "砛": 5130,
      "砝": 5131,
      "砞": 5132,
      "砣": 5133,
      "砥": 5134,
      "砦": 5135,
      "砧": 5136,
      "砩": 5137,
      "砪": 5138,
      "砫": 5139,
      "砭": 5140,
      "砯": 5141,
      "砰": 5142,
      "砱": 5143,
      "砲": 5144,
      "破": 5145,
      "砷": 5146,
      "砸": 5147,
      "砺": 5148,
      "砾": 5149,
      "础": 5150,
      "硁": 5151,
      "硂": 5152,
      "硃": 5153,
      "硄": 5154,
      "硅": 5155,
      "硈": 5156,
      "硉": 5157,
      "硋": 5158,
      "硌": 5159,
      "硐": 5160,
      "硑": 5161,
      "硒": 5162,
      "硓": 5163,
      "硔": 5164,
      "硕": 5165,
      "硖": 5166,
      "硙": 5167,
      "硚": 5168,
      "硝": 5169,
      "硪": 5170,
      "硫": 5171,
      "硬": 5172,
      "确": 5173,
      "硷": 5174,
      "硼": 5175,
      "碈": 5176,
      "碉": 5177,
      "碊": 5178,
      "碌": 5179,
      "碍": 5180,
      "碎": 5181,
      "碑": 5182,
      "碓": 5183,
      "碔": 5184,
      "碕": 5185,
      "碗": 5186,
      "碘": 5187,
      "碙": 5188,
      "碜": 5189,
      "碝": 5190,
      "碞": 5191,
      "碟": 5192,
      "碧": 5193,
      "碩": 5194,
      "碪": 5195,
      "碭": 5196,
      "碰": 5197,
      "碱": 5198,
      "碲": 5199,
      "碳": 5200,
      "碴": 5201,
      "確": 5202,
      "碼": 5203,
      "碾": 5204,
      "碿": 5205,
      "磀": 5206,
      "磁": 5207,
      "磅": 5208,
      "磊": 5209,
      "磋": 5210,
      "磐": 5211,
      "磑": 5212,
      "磕": 5213,
      "磖": 5214,
      "磚": 5215,
      "磝": 5216,
      "磞": 5217,
      "磨": 5218,
      "磯": 5219,
      "磷": 5220,
      "磺": 5221,
      "礁": 5222,
      "礎": 5223,
      "礙": 5224,
      "礚": 5225,
      "礛": 5226,
      "礟": 5227,
      "礢": 5228,
      "礦": 5229,
      "礨": 5230,
      "礩": 5231,
      "礴": 5232,
      "礶": 5233,
      "礷": 5234,
      "礹": 5235,
      "示": 5236,
      "礼": 5237,
      "社": 5238,
      "礿": 5239,
      "祀": 5240,
      "祁": 5241,
      "祂": 5242,
      "祅": 5243,
      "祇": 5244,
      "祈": 5245,
      "祉": 5246,
      "祍": 5247,
      "祏": 5248,
      "祐": 5249,
      "祑": 5250,
      "祔": 5251,
      "祕": 5252,
      "祖": 5253,
      "祗": 5254,
      "祘": 5255,
      "祙": 5256,
      "祛": 5257,
      "祜": 5258,
      "祝": 5259,
      "神": 5260,
      "祟": 5261,
      "祠": 5262,
      "祢": 5263,
      "祥": 5264,
      "祧": 5265,
      "票": 5266,
      "祩": 5267,
      "祭": 5268,
      "祷": 5269,
      "祸": 5270,
      "祺": 5271,
      "祿": 5272,
      "禀": 5273,
      "禁": 5274,
      "禄": 5275,
      "禅": 5276,
      "禍": 5277,
      "福": 5278,
      "禔": 5279,
      "禗": 5280,
      "禘": 5281,
      "禜": 5282,
      "禟": 5283,
      "禣": 5284,
      "禥": 5285,
      "禦": 5286,
      "禧": 5287,
      "禪": 5288,
      "禫": 5289,
      "禬": 5290,
      "禭": 5291,
      "禮": 5292,
      "禯": 5293,
      "禰": 5294,
      "禱": 5295,
      "禲": 5296,
      "禴": 5297,
      "禸": 5298,
      "禺": 5299,
      "离": 5300,
      "禼": 5301,
      "禽": 5302,
      "禾": 5303,
      "禿": 5304,
      "秀": 5305,
      "私": 5306,
      "秂": 5307,
      "秃": 5308,
      "秅": 5309,
      "秆": 5310,
      "秈": 5311,
      "秉": 5312,
      "秋": 5313,
      "种": 5314,
      "秎": 5315,
      "秏": 5316,
      "科": 5317,
      "秒": 5318,
      "秖": 5319,
      "秘": 5320,
      "秝": 5321,
      "租": 5322,
      "秤": 5323,
      "秦": 5324,
      "秧": 5325,
      "秨": 5326,
      "秩": 5327,
      "秪": 5328,
      "积": 5329,
      "称": 5330,
      "秶": 5331,
      "秸": 5332,
      "移": 5333,
      "秽": 5334,
      "稀": 5335,
      "稂": 5336,
      "稅": 5337,
      "程": 5338,
      "稍": 5339,
      "税": 5340,
      "稔": 5341,
      "稗": 5342,
      "稚": 5343,
      "稟": 5344,
      "稠": 5345,
      "稣": 5346,
      "稦": 5347,
      "稬": 5348,
      "種": 5349,
      "稰": 5350,
      "稱": 5351,
      "稲": 5352,
      "稳": 5353,
      "稴": 5354,
      "稵": 5355,
      "稶": 5356,
      "稷": 5357,
      "稺": 5358,
      "稻": 5359,
      "稼": 5360,
      "稽": 5361,
      "稿": 5362,
      "穀": 5363,
      "穆": 5364,
      "穌": 5365,
      "積": 5366,
      "穎": 5367,
      "穐": 5368,
      "穑": 5369,
      "穒": 5370,
      "穓": 5371,
      "穕": 5372,
      "穖": 5373,
      "穗": 5374,
      "穘": 5375,
      "穚": 5376,
      "穛": 5377,
      "穝": 5378,
      "穢": 5379,
      "穦": 5380,
      "穨": 5381,
      "穩": 5382,
      "穫": 5383,
      "穱": 5384,
      "穴": 5385,
      "究": 5386,
      "穷": 5387,
      "穹": 5388,
      "空": 5389,
      "穻": 5390,
      "穿": 5391,
      "突": 5392,
      "窃": 5393,
      "窄": 5394,
      "窈": 5395,
      "窍": 5396,
      "窑": 5397,
      "窒": 5398,
      "窕": 5399,
      "窖": 5400,
      "窗": 5401,
      "窘": 5402,
      "窜": 5403,
      "窝": 5404,
      "窟": 5405,
      "窠": 5406,
      "窥": 5407,
      "窦": 5408,
      "窩": 5409,
      "窪": 5410,
      "窮": 5411,
      "窯": 5412,
      "窰": 5413,
      "窱": 5414,
      "窵": 5415,
      "窸": 5416,
      "窺": 5417,
      "窽": 5418,
      "窾": 5419,
      "窿": 5420,
      "竄": 5421,
      "竅": 5422,
      "竇": 5423,
      "竊": 5424,
      "立": 5425,
      "竒": 5426,
      "竕": 5427,
      "竖": 5428,
      "站": 5429,
      "竚": 5430,
      "竛": 5431,
      "竜": 5432,
      "竝": 5433,
      "竞": 5434,
      "竟": 5435,
      "章": 5436,
      "竡": 5437,
      "竣": 5438,
      "竤": 5439,
      "童": 5440,
      "竧": 5441,
      "竨": 5442,
      "竬": 5443,
      "竭": 5444,
      "竮": 5445,
      "端": 5446,
      "竲": 5447,
      "竳": 5448,
      "競": 5449,
      "竹": 5450,
      "竺": 5451,
      "竽": 5452,
      "竿": 5453,
      "笃": 5454,
      "笆": 5455,
      "笈": 5456,
      "笋": 5457,
      "笑": 5458,
      "笔": 5459,
      "笘": 5460,
      "笙": 5461,
      "笛": 5462,
      "笞": 5463,
      "笠": 5464,
      "笢": 5465,
      "笥": 5466,
      "符": 5467,
      "笨": 5468,
      "第": 5469,
      "笭": 5470,
      "笰": 5471,
      "笱": 5472,
      "笲": 5473,
      "笳": 5474,
      "笴": 5475,
      "笵": 5476,
      "笷": 5477,
      "笹": 5478,
      "笺": 5479,
      "笻": 5480,
      "笼": 5481,
      "笿": 5482,
      "筁": 5483,
      "筂": 5484,
      "筆": 5485,
      "等": 5486,
      "筋": 5487,
      "筍": 5488,
      "筎": 5489,
      "筏": 5490,
      "筐": 5491,
      "筑": 5492,
      "筒": 5493,
      "答": 5494,
      "策": 5495,
      "筛": 5496,
      "筝": 5497,
      "筠": 5498,
      "筧": 5499,
      "筱": 5500,
      "筳": 5501,
      "筴": 5502,
      "筵": 5503,
      "筷": 5504,
      "筹": 5505,
      "筽": 5506,
      "签": 5507,
      "筿": 5508,
      "简": 5509,
      "箂": 5510,
      "箄": 5511,
      "箇": 5512,
      "箉": 5513,
      "箍": 5514,
      "箎": 5515,
      "箔": 5516,
      "算": 5517,
      "箝": 5518,
      "管": 5519,
      "箩": 5520,
      "箫": 5521,
      "箬": 5522,
      "箭": 5523,
      "箱": 5524,
      "箴": 5525,
      "節": 5526,
      "範": 5527,
      "篇": 5528,
      "篈": 5529,
      "築": 5530,
      "篊": 5531,
      "篋": 5532,
      "篏": 5533,
      "篑": 5534,
      "篓": 5535,
      "篗": 5536,
      "篙": 5537,
      "篝": 5538,
      "篟": 5539,
      "篡": 5540,
      "篤": 5541,
      "篦": 5542,
      "篪": 5543,
      "篫": 5544,
      "篮": 5545,
      "篱": 5546,
      "篴": 5547,
      "篶": 5548,
      "篷": 5549,
      "篽": 5550,
      "篾": 5551,
      "簀": 5552,
      "簆": 5553,
      "簇": 5554,
      "簈": 5555,
      "簍": 5556,
      "簎": 5557,
      "簑": 5558,
      "簒": 5559,
      "簘": 5560,
      "簙": 5561,
      "簡": 5562,
      "簧": 5563,
      "簫": 5564,
      "簸": 5565,
      "簽": 5566,
      "簾": 5567,
      "簿": 5568,
      "籁": 5569,
      "籃": 5570,
      "籄": 5571,
      "籇": 5572,
      "籈": 5573,
      "籊": 5574,
      "籌": 5575,
      "籍": 5576,
      "籏": 5577,
      "籐": 5578,
      "籓": 5579,
      "籔": 5580,
      "籖": 5581,
      "籘": 5582,
      "籜": 5583,
      "籟": 5584,
      "籠": 5585,
      "籤": 5586,
      "籥": 5587,
      "籩": 5588,
      "籬": 5589,
      "籮": 5590,
      "籯": 5591,
      "籲": 5592,
      "米": 5593,
      "籴": 5594,
      "籹": 5595,
      "类": 5596,
      "籽": 5597,
      "粁": 5598,
      "粂": 5599,
      "粃": 5600,
      "粄": 5601,
      "粆": 5602,
      "粇": 5603,
      "粉": 5604,
      "粑": 5605,
      "粒": 5606,
      "粖": 5607,
      "粗": 5608,
      "粘": 5609,
      "粟": 5610,
      "粤": 5611,
      "粥": 5612,
      "粪": 5613,
      "粮": 5614,
      "粱": 5615,
      "粹": 5616,
      "粽": 5617,
      "精": 5618,
      "粿": 5619,
      "糃": 5620,
      "糅": 5621,
      "糉": 5622,
      "糊": 5623,
      "糋": 5624,
      "糎": 5625,
      "糐": 5626,
      "糑": 5627,
      "糒": 5628,
      "糓": 5629,
      "糔": 5630,
      "糕": 5631,
      "糖": 5632,
      "糗": 5633,
      "糙": 5634,
      "糛": 5635,
      "糞": 5636,
      "糟": 5637,
      "糠": 5638,
      "糤": 5639,
      "糧": 5640,
      "糯": 5641,
      "糴": 5642,
      "糵": 5643,
      "糶": 5644,
      "糷": 5645,
      "糸": 5646,
      "系": 5647,
      "糽": 5648,
      "糾": 5649,
      "紀": 5650,
      "紁": 5651,
      "約": 5652,
      "紅": 5653,
      "紆": 5654,
      "紇": 5655,
      "紈": 5656,
      "紊": 5657,
      "紋": 5658,
      "紌": 5659,
      "納": 5660,
      "紏": 5661,
      "紐": 5662,
      "純": 5663,
      "紗": 5664,
      "紙": 5665,
      "級": 5666,
      "紛": 5667,
      "素": 5668,
      "紡": 5669,
      "索": 5670,
      "紧": 5671,
      "紫": 5672,
      "紮": 5673,
      "累": 5674,
      "細": 5675,
      "紲": 5676,
      "紳": 5677,
      "紹": 5678,
      "紽": 5679,
      "紿": 5680,
      "終": 5681,
      "絃": 5682,
      "組": 5683,
      "絆": 5684,
      "絉": 5685,
      "絊": 5686,
      "絋": 5687,
      "絏": 5688,
      "結": 5689,
      "絒": 5690,
      "絕": 5691,
      "絘": 5692,
      "絙": 5693,
      "絚": 5694,
      "絛": 5695,
      "絞": 5696,
      "絡": 5697,
      "絤": 5698,
      "給": 5699,
      "絨": 5700,
      "絩": 5701,
      "絪": 5702,
      "絫": 5703,
      "絬": 5704,
      "絮": 5705,
      "絰": 5706,
      "統": 5707,
      "絲": 5708,
      "絴": 5709,
      "絶": 5710,
      "絿": 5711,
      "綁": 5712,
      "綑": 5713,
      "經": 5714,
      "続": 5715,
      "綜": 5716,
      "綝": 5717,
      "綟": 5718,
      "綠": 5719,
      "綢": 5720,
      "綣": 5721,
      "綤": 5722,
      "綪": 5723,
      "維": 5724,
      "綮": 5725,
      "綰": 5726,
      "綱": 5727,
      "網": 5728,
      "綴": 5729,
      "綵": 5730,
      "綸": 5731,
      "綺": 5732,
      "綻": 5733,
      "綼": 5734,
      "綽": 5735,
      "綾": 5736,
      "綿": 5737,
      "緄": 5738,
      "緅": 5739,
      "緇": 5740,
      "緊": 5741,
      "緋": 5742,
      "緍": 5743,
      "緑": 5744,
      "緒": 5745,
      "緓": 5746,
      "緘": 5747,
      "緙": 5748,
      "線": 5749,
      "緝": 5750,
      "緞": 5751,
      "締": 5752,
      "緣": 5753,
      "編": 5754,
      "緩": 5755,
      "緬": 5756,
      "練": 5757,
      "緸": 5758,
      "緻": 5759,
      "緼": 5760,
      "緽": 5761,
      "縀": 5762,
      "縇": 5763,
      "縈": 5764,
      "縉": 5765,
      "縊": 5766,
      "縋": 5767,
      "縎": 5768,
      "縐": 5769,
      "縒": 5770,
      "縛": 5771,
      "縡": 5772,
      "縣": 5773,
      "縤": 5774,
      "縩": 5775,
      "縫": 5776,
      "縬": 5777,
      "縮": 5778,
      "縱": 5779,
      "縷": 5780,
      "縸": 5781,
      "總": 5782,
      "績": 5783,
      "繁": 5784,
      "繃": 5785,
      "繆": 5786,
      "織": 5787,
      "繕": 5788,
      "繚": 5789,
      "繞": 5790,
      "繡": 5791,
      "繥": 5792,
      "繦": 5793,
      "繧": 5794,
      "繨": 5795,
      "繩": 5796,
      "繪": 5797,
      "繫": 5798,
      "繭": 5799,
      "繰": 5800,
      "繳": 5801,
      "繵": 5802,
      "繷": 5803,
      "繹": 5804,
      "繺": 5805,
      "繻": 5806,
      "繼": 5807,
      "繽": 5808,
      "繿": 5809,
      "纂": 5810,
      "纄": 5811,
      "纉": 5812,
      "纊": 5813,
      "續": 5814,
      "纏": 5815,
      "纐": 5816,
      "纒": 5817,
      "纓": 5818,
      "纔": 5819,
      "纕": 5820,
      "纖": 5821,
      "纗": 5822,
      "纘": 5823,
      "纜": 5824,
      "纞": 5825,
      "纠": 5826,
      "红": 5827,
      "纣": 5828,
      "纤": 5829,
      "约": 5830,
      "级": 5831,
      "纨": 5832,
      "纪": 5833,
      "纫": 5834,
      "纬": 5835,
      "纭": 5836,
      "纯": 5837,
      "纰": 5838,
      "纱": 5839,
      "纲": 5840,
      "纳": 5841,
      "纵": 5842,
      "纶": 5843,
      "纷": 5844,
      "纸": 5845,
      "纹": 5846,
      "纺": 5847,
      "纽": 5848,
      "纾": 5849,
      "线": 5850,
      "练": 5851,
      "组": 5852,
      "绅": 5853,
      "细": 5854,
      "织": 5855,
      "终": 5856,
      "绉": 5857,
      "绊": 5858,
      "绌": 5859,
      "绍": 5860,
      "绎": 5861,
      "经": 5862,
      "绑": 5863,
      "绒": 5864,
      "结": 5865,
      "绔": 5866,
      "绕": 5867,
      "绘": 5868,
      "给": 5869,
      "绚": 5870,
      "绛": 5871,
      "络": 5872,
      "绝": 5873,
      "绞": 5874,
      "统": 5875,
      "绢": 5876,
      "绣": 5877,
      "绥": 5878,
      "绦": 5879,
      "继": 5880,
      "绩": 5881,
      "绪": 5882,
      "续": 5883,
      "绮": 5884,
      "绯": 5885,
      "绰": 5886,
      "绳": 5887,
      "维": 5888,
      "绵": 5889,
      "绶": 5890,
      "绷": 5891,
      "绸": 5892,
      "综": 5893,
      "绽": 5894,
      "绿": 5895,
      "缀": 5896,
      "缄": 5897,
      "缅": 5898,
      "缆": 5899,
      "缇": 5900,
      "缈": 5901,
      "缉": 5902,
      "缎": 5903,
      "缒": 5904,
      "缓": 5905,
      "缔": 5906,
      "缕": 5907,
      "编": 5908,
      "缘": 5909,
      "缙": 5910,
      "缚": 5911,
      "缛": 5912,
      "缜": 5913,
      "缝": 5914,
      "缠": 5915,
      "缡": 5916,
      "缢": 5917,
      "缤": 5918,
      "缥": 5919,
      "缨": 5920,
      "缩": 5921,
      "缪": 5922,
      "缫": 5923,
      "缬": 5924,
      "缭": 5925,
      "缮": 5926,
      "缯": 5927,
      "缰": 5928,
      "缴": 5929,
      "缶": 5930,
      "缷": 5931,
      "缸": 5932,
      "缺": 5933,
      "缽": 5934,
      "罂": 5935,
      "罄": 5936,
      "罌": 5937,
      "罎": 5938,
      "罐": 5939,
      "网": 5940,
      "罔": 5941,
      "罕": 5942,
      "罖": 5943,
      "罗": 5944,
      "罙": 5945,
      "罚": 5946,
      "罠": 5947,
      "罢": 5948,
      "罩": 5949,
      "罪": 5950,
      "置": 5951,
      "罰": 5952,
      "署": 5953,
      "罵": 5954,
      "罷": 5955,
      "罹": 5956,
      "罺": 5957,
      "罽": 5958,
      "羁": 5959,
      "羅": 5960,
      "羆": 5961,
      "羇": 5962,
      "羈": 5963,
      "羊": 5964,
      "羌": 5965,
      "美": 5966,
      "羔": 5967,
      "羘": 5968,
      "羙": 5969,
      "羚": 5970,
      "羛": 5971,
      "羞": 5972,
      "羟": 5973,
      "羡": 5974,
      "羣": 5975,
      "群": 5976,
      "羦": 5977,
      "羨": 5978,
      "義": 5979,
      "羪": 5980,
      "羬": 5981,
      "羭": 5982,
      "羯": 5983,
      "羰": 5984,
      "羲": 5985,
      "羶": 5986,
      "羸": 5987,
      "羹": 5988,
      "羽": 5989,
      "翁": 5990,
      "翅": 5991,
      "翊": 5992,
      "翌": 5993,
      "翎": 5994,
      "習": 5995,
      "翔": 5996,
      "翘": 5997,
      "翠": 5998,
      "翡": 5999,
      "翦": 6000,
      "翧": 6001,
      "翩": 6002,
      "翰": 6003,
      "翱": 6004,
      "翳": 6005,
      "翴": 6006,
      "翹": 6007,
      "翺": 6008,
      "翻": 6009,
      "翼": 6010,
      "耀": 6011,
      "老": 6012,
      "考": 6013,
      "耄": 6014,
      "者": 6015,
      "耆": 6016,
      "耋": 6017,
      "而": 6018,
      "耍": 6019,
      "耐": 6020,
      "耑": 6021,
      "耕": 6022,
      "耗": 6023,
      "耘": 6024,
      "耙": 6025,
      "耚": 6026,
      "耞": 6027,
      "耡": 6028,
      "耤": 6029,
      "耦": 6030,
      "耫": 6031,
      "耭": 6032,
      "耳": 6033,
      "耴": 6034,
      "耶": 6035,
      "耷": 6036,
      "耸": 6037,
      "耻": 6038,
      "耽": 6039,
      "耿": 6040,
      "聂": 6041,
      "聆": 6042,
      "聊": 6043,
      "聋": 6044,
      "职": 6045,
      "聐": 6046,
      "聒": 6047,
      "联": 6048,
      "聕": 6049,
      "聖": 6050,
      "聘": 6051,
      "聚": 6052,
      "聞": 6053,
      "聩": 6054,
      "聪": 6055,
      "聯": 6056,
      "聰": 6057,
      "聲": 6058,
      "聳": 6059,
      "聶": 6060,
      "職": 6061,
      "聼": 6062,
      "聽": 6063,
      "聾": 6064,
      "肃": 6065,
      "肄": 6066,
      "肅": 6067,
      "肆": 6068,
      "肇": 6069,
      "肈": 6070,
      "肉": 6071,
      "肋": 6072,
      "肌": 6073,
      "肏": 6074,
      "肓": 6075,
      "肖": 6076,
      "肘": 6077,
      "肚": 6078,
      "肛": 6079,
      "肝": 6080,
      "肞": 6081,
      "肠": 6082,
      "股": 6083,
      "肢": 6084,
      "肤": 6085,
      "肥": 6086,
      "肩": 6087,
      "肪": 6088,
      "肫": 6089,
      "肮": 6090,
      "肯": 6091,
      "肱": 6092,
      "育": 6093,
      "肴": 6094,
      "肺": 6095,
      "肽": 6096,
      "肾": 6097,
      "肿": 6098,
      "胀": 6099,
      "胁": 6100,
      "胃": 6101,
      "胄": 6102,
      "胆": 6103,
      "胊": 6104,
      "背": 6105,
      "胎": 6106,
      "胐": 6107,
      "胑": 6108,
      "胔": 6109,
      "胕": 6110,
      "胖": 6111,
      "胚": 6112,
      "胛": 6113,
      "胜": 6114,
      "胞": 6115,
      "胠": 6116,
      "胡": 6117,
      "胥": 6118,
      "胧": 6119,
      "胫": 6120,
      "胭": 6121,
      "胯": 6122,
      "胰": 6123,
      "胱": 6124,
      "胳": 6125,
      "胴": 6126,
      "胶": 6127,
      "胸": 6128,
      "胺": 6129,
      "胻": 6130,
      "能": 6131,
      "脂": 6132,
      "脄": 6133,
      "脅": 6134,
      "脆": 6135,
      "脈": 6136,
      "脉": 6137,
      "脊": 6138,
      "脋": 6139,
      "脏": 6140,
      "脐": 6141,
      "脑": 6142,
      "脓": 6143,
      "脔": 6144,
      "脖": 6145,
      "脚": 6146,
      "脛": 6147,
      "脫": 6148,
      "脯": 6149,
      "脱": 6150,
      "脸": 6151,
      "脹": 6152,
      "脾": 6153,
      "腀": 6154,
      "腃": 6155,
      "腆": 6156,
      "腇": 6157,
      "腈": 6158,
      "腉": 6159,
      "腊": 6160,
      "腋": 6161,
      "腌": 6162,
      "腎": 6163,
      "腐": 6164,
      "腑": 6165,
      "腓": 6166,
      "腔": 6167,
      "腕": 6168,
      "腞": 6169,
      "腢": 6170,
      "腥": 6171,
      "腦": 6172,
      "腨": 6173,
      "腩": 6174,
      "腪": 6175,
      "腫": 6176,
      "腭": 6177,
      "腮": 6178,
      "腯": 6179,
      "腰": 6180,
      "腱": 6181,
      "腳": 6182,
      "腴": 6183,
      "腶": 6184,
      "腸": 6185,
      "腹": 6186,
      "腺": 6187,
      "腻": 6188,
      "腼": 6189,
      "腾": 6190,
      "腿": 6191,
      "膀": 6192,
      "膅": 6193,
      "膈": 6194,
      "膊": 6195,
      "膎": 6196,
      "膏": 6197,
      "膐": 6198,
      "膑": 6199,
      "膒": 6200,
      "膘": 6201,
      "膚": 6202,
      "膛": 6203,
      "膜": 6204,
      "膝": 6205,
      "膞": 6206,
      "膠": 6207,
      "膥": 6208,
      "膨": 6209,
      "膩": 6210,
      "膳": 6211,
      "膺": 6212,
      "膽": 6213,
      "膿": 6214,
      "臀": 6215,
      "臂": 6216,
      "臃": 6217,
      "臆": 6218,
      "臈": 6219,
      "臉": 6220,
      "臊": 6221,
      "臍": 6222,
      "臔": 6223,
      "臘": 6224,
      "臚": 6225,
      "臛": 6226,
      "臟": 6227,
      "臣": 6228,
      "臥": 6229,
      "臦": 6230,
      "臨": 6231,
      "臩": 6232,
      "自": 6233,
      "臫": 6234,
      "臭": 6235,
      "臮": 6236,
      "臱": 6237,
      "至": 6238,
      "致": 6239,
      "臷": 6240,
      "臸": 6241,
      "臺": 6242,
      "臻": 6243,
      "臼": 6244,
      "臽": 6245,
      "舀": 6246,
      "舂": 6247,
      "舅": 6248,
      "舆": 6249,
      "與": 6250,
      "興": 6251,
      "舉": 6252,
      "舊": 6253,
      "舌": 6254,
      "舍": 6255,
      "舐": 6256,
      "舒": 6257,
      "舔": 6258,
      "舖": 6259,
      "舗": 6260,
      "舘": 6261,
      "舛": 6262,
      "舜": 6263,
      "舞": 6264,
      "舟": 6265,
      "舠": 6266,
      "舦": 6267,
      "舧": 6268,
      "舩": 6269,
      "航": 6270,
      "舫": 6271,
      "般": 6272,
      "舮": 6273,
      "舰": 6274,
      "舱": 6275,
      "舵": 6276,
      "舶": 6277,
      "舷": 6278,
      "船": 6279,
      "舺": 6280,
      "艇": 6281,
      "艉": 6282,
      "艋": 6283,
      "艘": 6284,
      "艙": 6285,
      "艦": 6286,
      "艮": 6287,
      "良": 6288,
      "艰": 6289,
      "艱": 6290,
      "色": 6291,
      "艳": 6292,
      "艶": 6293,
      "艷": 6294,
      "艹": 6295,
      "艺": 6296,
      "艼": 6297,
      "艾": 6298,
      "节": 6299,
      "芅": 6300,
      "芉": 6301,
      "芋": 6302,
      "芍": 6303,
      "芒": 6304,
      "芔": 6305,
      "芖": 6306,
      "芙": 6307,
      "芚": 6308,
      "芛": 6309,
      "芜": 6310,
      "芝": 6311,
      "芠": 6312,
      "芥": 6313,
      "芦": 6314,
      "芬": 6315,
      "芭": 6316,
      "芮": 6317,
      "芯": 6318,
      "花": 6319,
      "芲": 6320,
      "芳": 6321,
      "芴": 6322,
      "芶": 6323,
      "芷": 6324,
      "芸": 6325,
      "芹": 6326,
      "芽": 6327,
      "芾": 6328,
      "苀": 6329,
      "苂": 6330,
      "苇": 6331,
      "苍": 6332,
      "苏": 6333,
      "苑": 6334,
      "苒": 6335,
      "苓": 6336,
      "苔": 6337,
      "苗": 6338,
      "苘": 6339,
      "苛": 6340,
      "苜": 6341,
      "苝": 6342,
      "苞": 6343,
      "苟": 6344,
      "苣": 6345,
      "苤": 6346,
      "若": 6347,
      "苦": 6348,
      "苯": 6349,
      "英": 6350,
      "苳": 6351,
      "苷": 6352,
      "苹": 6353,
      "茁": 6354,
      "茂": 6355,
      "范": 6356,
      "茄": 6357,
      "茅": 6358,
      "茉": 6359,
      "茍": 6360,
      "茎": 6361,
      "茗": 6362,
      "茛": 6363,
      "茜": 6364,
      "茞": 6365,
      "茧": 6366,
      "茨": 6367,
      "茫": 6368,
      "茬": 6369,
      "茱": 6370,
      "茲": 6371,
      "茴": 6372,
      "茵": 6373,
      "茶": 6374,
      "茸": 6375,
      "茹": 6376,
      "荀": 6377,
      "荃": 6378,
      "荆": 6379,
      "草": 6380,
      "荎": 6381,
      "荏": 6382,
      "荐": 6383,
      "荒": 6384,
      "荔": 6385,
      "荘": 6386,
      "荚": 6387,
      "荜": 6388,
      "荟": 6389,
      "荡": 6390,
      "荣": 6391,
      "荤": 6392,
      "荧": 6393,
      "荨": 6394,
      "荪": 6395,
      "荫": 6396,
      "药": 6397,
      "荷": 6398,
      "荻": 6399,
      "荼": 6400,
      "荽": 6401,
      "莅": 6402,
      "莆": 6403,
      "莉": 6404,
      "莊": 6405,
      "莎": 6406,
      "莓": 6407,
      "莖": 6408,
      "莞": 6409,
      "莠": 6410,
      "莢": 6411,
      "莪": 6412,
      "莫": 6413,
      "莰": 6414,
      "莱": 6415,
      "莲": 6416,
      "获": 6417,
      "莹": 6418,
      "莺": 6419,
      "莽": 6420,
      "菁": 6421,
      "菅": 6422,
      "菇": 6423,
      "菈": 6424,
      "菊": 6425,
      "菌": 6426,
      "菏": 6427,
      "菜": 6428,
      "菝": 6429,
      "菠": 6430,
      "菩": 6431,
      "華": 6432,
      "菱": 6433,
      "菲": 6434,
      "菴": 6435,
      "菸": 6436,
      "萃": 6437,
      "萄": 6438,
      "萇": 6439,
      "萊": 6440,
      "萌": 6441,
      "萍": 6442,
      "萎": 6443,
      "萘": 6444,
      "萜": 6445,
      "萝": 6446,
      "萤": 6447,
      "营": 6448,
      "萦": 6449,
      "萧": 6450,
      "萨": 6451,
      "萩": 6452,
      "萬": 6453,
      "萱": 6454,
      "萵": 6455,
      "萸": 6456,
      "萺": 6457,
      "萼": 6458,
      "落": 6459,
      "葆": 6460,
      "葉": 6461,
      "著": 6462,
      "葚": 6463,
      "葛": 6464,
      "葡": 6465,
      "董": 6466,
      "葩": 6467,
      "葫": 6468,
      "葬": 6469,
      "葭": 6470,
      "葱": 6471,
      "葳": 6472,
      "葵": 6473,
      "葷": 6474,
      "葺": 6475,
      "蒂": 6476,
      "蒋": 6477,
      "蒐": 6478,
      "蒔": 6479,
      "蒙": 6480,
      "蒜": 6481,
      "蒞": 6482,
      "蒠": 6483,
      "蒲": 6484,
      "蒳": 6485,
      "蒸": 6486,
      "蒼": 6487,
      "蒿": 6488,
      "蓄": 6489,
      "蓉": 6490,
      "蓋": 6491,
      "蓓": 6492,
      "蓖": 6493,
      "蓝": 6494,
      "蓟": 6495,
      "蓦": 6496,
      "蓬": 6497,
      "蓮": 6498,
      "蓿": 6499,
      "蔑": 6500,
      "蔓": 6501,
      "蔔": 6502,
      "蔗": 6503,
      "蔚": 6504,
      "蔡": 6505,
      "蔣": 6506,
      "蔥": 6507,
      "蔫": 6508,
      "蔬": 6509,
      "蔭": 6510,
      "蔷": 6511,
      "蔻": 6512,
      "蔼": 6513,
      "蔽": 6514,
      "蕁": 6515,
      "蕃": 6516,
      "蕈": 6517,
      "蕉": 6518,
      "蕊": 6519,
      "蕓": 6520,
      "蕙": 6521,
      "蕞": 6522,
      "蕨": 6523,
      "蕩": 6524,
      "蕪": 6525,
      "蕭": 6526,
      "蕴": 6527,
      "蕾": 6528,
      "薃": 6529,
      "薄": 6530,
      "薇": 6531,
      "薊": 6532,
      "薏": 6533,
      "薑": 6534,
      "薙": 6535,
      "薛": 6536,
      "薜": 6537,
      "薦": 6538,
      "薩": 6539,
      "薪": 6540,
      "薮": 6541,
      "薯": 6542,
      "薰": 6543,
      "藉": 6544,
      "藍": 6545,
      "藏": 6546,
      "藐": 6547,
      "藓": 6548,
      "藕": 6549,
      "藜": 6550,
      "藝": 6551,
      "藤": 6552,
      "藥": 6553,
      "藩": 6554,
      "藷": 6555,
      "藻": 6556,
      "藿": 6557,
      "蘃": 6558,
      "蘇": 6559,
      "蘊": 6560,
      "蘋": 6561,
      "蘑": 6562,
      "蘭": 6563,
      "蘸": 6564,
      "蘼": 6565,
      "蘿": 6566,
      "虎": 6567,
      "虏": 6568,
      "虐": 6569,
      "虑": 6570,
      "虔": 6571,
      "處": 6572,
      "虚": 6573,
      "虛": 6574,
      "虜": 6575,
      "虞": 6576,
      "號": 6577,
      "虧": 6578,
      "虫": 6579,
      "虱": 6580,
      "虷": 6581,
      "虹": 6582,
      "虼": 6583,
      "虽": 6584,
      "虾": 6585,
      "蚀": 6586,
      "蚁": 6587,
      "蚂": 6588,
      "蚊": 6589,
      "蚋": 6590,
      "蚌": 6591,
      "蚓": 6592,
      "蚔": 6593,
      "蚕": 6594,
      "蚗": 6595,
      "蚚": 6596,
      "蚜": 6597,
      "蚝": 6598,
      "蚣": 6599,
      "蚤": 6600,
      "蚩": 6601,
      "蚪": 6602,
      "蚬": 6603,
      "蚯": 6604,
      "蚱": 6605,
      "蚳": 6606,
      "蚾": 6607,
      "蛀": 6608,
      "蛁": 6609,
      "蛂": 6610,
      "蛆": 6611,
      "蛇": 6612,
      "蛊": 6613,
      "蛋": 6614,
      "蛎": 6615,
      "蛐": 6616,
      "蛔": 6617,
      "蛙": 6618,
      "蛛": 6619,
      "蛞": 6620,
      "蛟": 6621,
      "蛤": 6622,
      "蛭": 6623,
      "蛮": 6624,
      "蛰": 6625,
      "蛸": 6626,
      "蛹": 6627,
      "蛾": 6628,
      "蜀": 6629,
      "蜂": 6630,
      "蜃": 6631,
      "蜆": 6632,
      "蜇": 6633,
      "蜈": 6634,
      "蜊": 6635,
      "蜍": 6636,
      "蜒": 6637,
      "蜓": 6638,
      "蜕": 6639,
      "蜗": 6640,
      "蜘": 6641,
      "蜚": 6642,
      "蜜": 6643,
      "蜡": 6644,
      "蜢": 6645,
      "蜥": 6646,
      "蜧": 6647,
      "蜩": 6648,
      "蜱": 6649,
      "蜴": 6650,
      "蜷": 6651,
      "蜻": 6652,
      "蜿": 6653,
      "蝇": 6654,
      "蝉": 6655,
      "蝌": 6656,
      "蝎": 6657,
      "蝓": 6658,
      "蝕": 6659,
      "蝗": 6660,
      "蝙": 6661,
      "蝚": 6662,
      "蝟": 6663,
      "蝠": 6664,
      "蝦": 6665,
      "蝨": 6666,
      "蝬": 6667,
      "蝮": 6668,
      "蝰": 6669,
      "蝴": 6670,
      "蝶": 6671,
      "蝸": 6672,
      "蝽": 6673,
      "蝾": 6674,
      "螁": 6675,
      "螂": 6676,
      "螃": 6677,
      "螆": 6678,
      "螇": 6679,
      "螈": 6680,
      "螉": 6681,
      "螌": 6682,
      "融": 6683,
      "螒": 6684,
      "螔": 6685,
      "螕": 6686,
      "螖": 6687,
      "螘": 6688,
      "螚": 6689,
      "螛": 6690,
      "螝": 6691,
      "螞": 6692,
      "螟": 6693,
      "螠": 6694,
      "螡": 6695,
      "螢": 6696,
      "螣": 6697,
      "螤": 6698,
      "螨": 6699,
      "螯": 6700,
      "螳": 6701,
      "螺": 6702,
      "蟀": 6703,
      "蟄": 6704,
      "蟆": 6705,
      "蟈": 6706,
      "蟋": 6707,
      "蟑": 6708,
      "蟒": 6709,
      "蟠": 6710,
      "蟥": 6711,
      "蟬": 6712,
      "蟲": 6713,
      "蟹": 6714,
      "蟺": 6715,
      "蟻": 6716,
      "蟼": 6717,
      "蟽": 6718,
      "蟾": 6719,
      "蟿": 6720,
      "蠀": 6721,
      "蠁": 6722,
      "蠂": 6723,
      "蠄": 6724,
      "蠅": 6725,
      "蠈": 6726,
      "蠉": 6727,
      "蠋": 6728,
      "蠍": 6729,
      "蠑": 6730,
      "蠔": 6731,
      "蠕": 6732,
      "蠖": 6733,
      "蠟": 6734,
      "蠢": 6735,
      "蠱": 6736,
      "蠹": 6737,
      "蠻": 6738,
      "血": 6739,
      "衄": 6740,
      "衅": 6741,
      "衆": 6742,
      "行": 6743,
      "衍": 6744,
      "術": 6745,
      "衔": 6746,
      "街": 6747,
      "衙": 6748,
      "衛": 6749,
      "衝": 6750,
      "衡": 6751,
      "衣": 6752,
      "补": 6753,
      "表": 6754,
      "衩": 6755,
      "衪": 6756,
      "衫": 6757,
      "衬": 6758,
      "衭": 6759,
      "衰": 6760,
      "衲": 6761,
      "衷": 6762,
      "衹": 6763,
      "衾": 6764,
      "袁": 6765,
      "袂": 6766,
      "袄": 6767,
      "袉": 6768,
      "袋": 6769,
      "袍": 6770,
      "袒": 6771,
      "袖": 6772,
      "袛": 6773,
      "袜": 6774,
      "袤": 6775,
      "袧": 6776,
      "袨": 6777,
      "被": 6778,
      "袭": 6779,
      "袱": 6780,
      "裁": 6781,
      "裂": 6782,
      "装": 6783,
      "裆": 6784,
      "裋": 6785,
      "裎": 6786,
      "裏": 6787,
      "裔": 6788,
      "裕": 6789,
      "裘": 6790,
      "裙": 6791,
      "補": 6792,
      "裝": 6793,
      "裡": 6794,
      "裤": 6795,
      "裨": 6796,
      "裱": 6797,
      "裳": 6798,
      "裴": 6799,
      "裸": 6800,
      "裹": 6801,
      "製": 6802,
      "褂": 6803,
      "複": 6804,
      "褊": 6805,
      "褐": 6806,
      "褒": 6807,
      "褓": 6808,
      "褛": 6809,
      "褥": 6810,
      "褪": 6811,
      "褫": 6812,
      "褲": 6813,
      "褶": 6814,
      "褻": 6815,
      "襁": 6816,
      "襄": 6817,
      "襞": 6818,
      "襟": 6819,
      "襢": 6820,
      "襪": 6821,
      "襯": 6822,
      "襲": 6823,
      "西": 6824,
      "要": 6825,
      "覂": 6826,
      "覃": 6827,
      "覆": 6828,
      "見": 6829,
      "規": 6830,
      "覓": 6831,
      "視": 6832,
      "覜": 6833,
      "親": 6834,
      "覲": 6835,
      "覷": 6836,
      "覺": 6837,
      "覽": 6838,
      "觀": 6839,
      "见": 6840,
      "观": 6841,
      "规": 6842,
      "觅": 6843,
      "视": 6844,
      "览": 6845,
      "觉": 6846,
      "觊": 6847,
      "觎": 6848,
      "觐": 6849,
      "觑": 6850,
      "角": 6851,
      "觝": 6852,
      "觞": 6853,
      "觟": 6854,
      "解": 6855,
      "触": 6856,
      "觸": 6857,
      "言": 6858,
      "訂": 6859,
      "訃": 6860,
      "訇": 6861,
      "計": 6862,
      "訊": 6863,
      "討": 6864,
      "訓": 6865,
      "訕": 6866,
      "託": 6867,
      "記": 6868,
      "訛": 6869,
      "訝": 6870,
      "訟": 6871,
      "訢": 6872,
      "訣": 6873,
      "訧": 6874,
      "訪": 6875,
      "設": 6876,
      "許": 6877,
      "訴": 6878,
      "診": 6879,
      "註": 6880,
      "証": 6881,
      "訾": 6882,
      "詆": 6883,
      "詐": 6884,
      "評": 6885,
      "詛": 6886,
      "詞": 6887,
      "詠": 6888,
      "詢": 6889,
      "試": 6890,
      "詩": 6891,
      "詪": 6892,
      "詫": 6893,
      "詭": 6894,
      "話": 6895,
      "該": 6896,
      "詳": 6897,
      "詹": 6898,
      "誇": 6899,
      "誉": 6900,
      "誊": 6901,
      "誌": 6902,
      "認": 6903,
      "誑": 6904,
      "誒": 6905,
      "誓": 6906,
      "誕": 6907,
      "誘": 6908,
      "語": 6909,
      "誠": 6910,
      "誡": 6911,
      "誣": 6912,
      "誤": 6913,
      "誦": 6914,
      "誨": 6915,
      "說": 6916,
      "説": 6917,
      "誰": 6918,
      "課": 6919,
      "誹": 6920,
      "誼": 6921,
      "調": 6922,
      "諀": 6923,
      "談": 6924,
      "諉": 6925,
      "請": 6926,
      "諒": 6927,
      "論": 6928,
      "諜": 6929,
      "諢": 6930,
      "諦": 6931,
      "諧": 6932,
      "諫": 6933,
      "諭": 6934,
      "諮": 6935,
      "諱": 6936,
      "諷": 6937,
      "諸": 6938,
      "諾": 6939,
      "謀": 6940,
      "謂": 6941,
      "謊": 6942,
      "謎": 6943,
      "謐": 6944,
      "謗": 6945,
      "謙": 6946,
      "講": 6947,
      "謝": 6948,
      "謠": 6949,
      "謬": 6950,
      "謹": 6951,
      "謽": 6952,
      "謾": 6953,
      "證": 6954,
      "識": 6955,
      "譚": 6956,
      "譜": 6957,
      "譟": 6958,
      "譡": 6959,
      "警": 6960,
      "譫": 6961,
      "譬": 6962,
      "譯": 6963,
      "議": 6964,
      "譴": 6965,
      "護": 6966,
      "譻": 6967,
      "譽": 6968,
      "讀": 6969,
      "讃": 6970,
      "變": 6971,
      "讓": 6972,
      "讕": 6973,
      "讚": 6974,
      "计": 6975,
      "订": 6976,
      "讣": 6977,
      "认": 6978,
      "讥": 6979,
      "讦": 6980,
      "讧": 6981,
      "讨": 6982,
      "让": 6983,
      "讪": 6984,
      "讫": 6985,
      "讬": 6986,
      "训": 6987,
      "议": 6988,
      "讯": 6989,
      "记": 6990,
      "讲": 6991,
      "讳": 6992,
      "讴": 6993,
      "讶": 6994,
      "讷": 6995,
      "许": 6996,
      "讹": 6997,
      "论": 6998,
      "讼": 6999,
      "讽": 7000,
      "设": 7001,
      "访": 7002,
      "诀": 7003,
      "证": 7004,
      "诂": 7005,
      "诃": 7006,
      "评": 7007,
      "诅": 7008,
      "识": 7009,
      "诈": 7010,
      "诉": 7011,
      "诊": 7012,
      "诋": 7013,
      "诌": 7014,
      "词": 7015,
      "诏": 7016,
      "译": 7017,
      "诓": 7018,
      "试": 7019,
      "诖": 7020,
      "诗": 7021,
      "诘": 7022,
      "诙": 7023,
      "诚": 7024,
      "诛": 7025,
      "话": 7026,
      "诞": 7027,
      "诟": 7028,
      "诠": 7029,
      "诡": 7030,
      "询": 7031,
      "诣": 7032,
      "该": 7033,
      "详": 7034,
      "诧": 7035,
      "诨": 7036,
      "诩": 7037,
      "诫": 7038,
      "诬": 7039,
      "语": 7040,
      "误": 7041,
      "诱": 7042,
      "诲": 7043,
      "说": 7044,
      "诵": 7045,
      "诶": 7046,
      "请": 7047,
      "诸": 7048,
      "诹": 7049,
      "诺": 7050,
      "读": 7051,
      "诽": 7052,
      "课": 7053,
      "诿": 7054,
      "谀": 7055,
      "谁": 7056,
      "谂": 7057,
      "调": 7058,
      "谄": 7059,
      "谅": 7060,
      "谆": 7061,
      "谈": 7062,
      "谊": 7063,
      "谋": 7064,
      "谌": 7065,
      "谍": 7066,
      "谎": 7067,
      "谏": 7068,
      "谐": 7069,
      "谑": 7070,
      "谓": 7071,
      "谔": 7072,
      "谕": 7073,
      "谗": 7074,
      "谘": 7075,
      "谙": 7076,
      "谚": 7077,
      "谛": 7078,
      "谜": 7079,
      "谟": 7080,
      "谢": 7081,
      "谣": 7082,
      "谤": 7083,
      "谦": 7084,
      "谧": 7085,
      "谨": 7086,
      "谩": 7087,
      "谬": 7088,
      "谭": 7089,
      "谰": 7090,
      "谱": 7091,
      "谲": 7092,
      "谴": 7093,
      "谶": 7094,
      "谷": 7095,
      "豁": 7096,
      "豆": 7097,
      "豈": 7098,
      "豉": 7099,
      "豌": 7100,
      "豎": 7101,
      "豐": 7102,
      "豖": 7103,
      "豚": 7104,
      "象": 7105,
      "豢": 7106,
      "豪": 7107,
      "豫": 7108,
      "豬": 7109,
      "豸": 7110,
      "豹": 7111,
      "豺": 7112,
      "貂": 7113,
      "貉": 7114,
      "貌": 7115,
      "貍": 7116,
      "貓": 7117,
      "貘": 7118,
      "貝": 7119,
      "貞": 7120,
      "負": 7121,
      "財": 7122,
      "貢": 7123,
      "貧": 7124,
      "貨": 7125,
      "販": 7126,
      "貪": 7127,
      "貫": 7128,
      "責": 7129,
      "貯": 7130,
      "貴": 7131,
      "貶": 7132,
      "買": 7133,
      "貸": 7134,
      "費": 7135,
      "貼": 7136,
      "貿": 7137,
      "賀": 7138,
      "賂": 7139,
      "賄": 7140,
      "資": 7141,
      "賈": 7142,
      "賊": 7143,
      "賑": 7144,
      "賓": 7145,
      "賜": 7146,
      "賞": 7147,
      "賠": 7148,
      "賡": 7149,
      "賢": 7150,
      "賣": 7151,
      "賤": 7152,
      "賦": 7153,
      "質": 7154,
      "賬": 7155,
      "賭": 7156,
      "賴": 7157,
      "賵": 7158,
      "賸": 7159,
      "賺": 7160,
      "購": 7161,
      "賽": 7162,
      "贅": 7163,
      "贈": 7164,
      "贊": 7165,
      "贍": 7166,
      "贏": 7167,
      "贓": 7168,
      "贖": 7169,
      "贗": 7170,
      "贝": 7171,
      "贞": 7172,
      "负": 7173,
      "贡": 7174,
      "财": 7175,
      "责": 7176,
      "贤": 7177,
      "败": 7178,
      "账": 7179,
      "货": 7180,
      "质": 7181,
      "贩": 7182,
      "贪": 7183,
      "贫": 7184,
      "贬": 7185,
      "购": 7186,
      "贮": 7187,
      "贯": 7188,
      "贰": 7189,
      "贱": 7190,
      "贲": 7191,
      "贴": 7192,
      "贵": 7193,
      "贷": 7194,
      "贸": 7195,
      "费": 7196,
      "贺": 7197,
      "贻": 7198,
      "贼": 7199,
      "贾": 7200,
      "贿": 7201,
      "赀": 7202,
      "赁": 7203,
      "赂": 7204,
      "赃": 7205,
      "资": 7206,
      "赅": 7207,
      "赈": 7208,
      "赊": 7209,
      "赋": 7210,
      "赌": 7211,
      "赎": 7212,
      "赏": 7213,
      "赐": 7214,
      "赔": 7215,
      "赖": 7216,
      "赘": 7217,
      "赚": 7218,
      "赛": 7219,
      "赝": 7220,
      "赞": 7221,
      "赠": 7222,
      "赡": 7223,
      "赢": 7224,
      "赣": 7225,
      "赤": 7226,
      "赦": 7227,
      "赫": 7228,
      "走": 7229,
      "赳": 7230,
      "赴": 7231,
      "赵": 7232,
      "赶": 7233,
      "起": 7234,
      "赻": 7235,
      "赽": 7236,
      "趁": 7237,
      "趄": 7238,
      "超": 7239,
      "越": 7240,
      "趋": 7241,
      "趔": 7242,
      "趕": 7243,
      "趙": 7244,
      "趟": 7245,
      "趣": 7246,
      "趨": 7247,
      "足": 7248,
      "趴": 7249,
      "趸": 7250,
      "趼": 7251,
      "趾": 7252,
      "跃": 7253,
      "跄": 7254,
      "跆": 7255,
      "跋": 7256,
      "跌": 7257,
      "跎": 7258,
      "跑": 7259,
      "跖": 7260,
      "跘": 7261,
      "跚": 7262,
      "跛": 7263,
      "距": 7264,
      "跟": 7265,
      "跡": 7266,
      "跤": 7267,
      "跨": 7268,
      "跩": 7269,
      "跪": 7270,
      "跬": 7271,
      "路": 7272,
      "跳": 7273,
      "践": 7274,
      "跶": 7275,
      "跷": 7276,
      "跺": 7277,
      "跻": 7278,
      "踉": 7279,
      "踊": 7280,
      "踌": 7281,
      "踏": 7282,
      "踐": 7283,
      "踝": 7284,
      "踞": 7285,
      "踟": 7286,
      "踡": 7287,
      "踢": 7288,
      "踩": 7289,
      "踪": 7290,
      "踫": 7291,
      "踮": 7292,
      "踯": 7293,
      "踰": 7294,
      "踱": 7295,
      "踵": 7296,
      "踹": 7297,
      "蹂": 7298,
      "蹄": 7299,
      "蹈": 7300,
      "蹉": 7301,
      "蹊": 7302,
      "蹋": 7303,
      "蹑": 7304,
      "蹒": 7305,
      "蹓": 7306,
      "蹙": 7307,
      "蹚": 7308,
      "蹟": 7309,
      "蹤": 7310,
      "蹦": 7311,
      "蹩": 7312,
      "蹬": 7313,
      "蹭": 7314,
      "蹰": 7315,
      "蹲": 7316,
      "蹴": 7317,
      "蹶": 7318,
      "蹺": 7319,
      "蹼": 7320,
      "蹿": 7321,
      "躁": 7322,
      "躅": 7323,
      "躇": 7324,
      "躉": 7325,
      "躍": 7326,
      "躏": 7327,
      "躓": 7328,
      "躪": 7329,
      "身": 7330,
      "躬": 7331,
      "躯": 7332,
      "躲": 7333,
      "躺": 7334,
      "軀": 7335,
      "車": 7336,
      "軋": 7337,
      "軌": 7338,
      "軍": 7339,
      "軒": 7340,
      "軗": 7341,
      "軟": 7342,
      "軸": 7343,
      "較": 7344,
      "載": 7345,
      "輔": 7346,
      "輕": 7347,
      "輛": 7348,
      "輝": 7349,
      "輟": 7350,
      "輩": 7351,
      "輪": 7352,
      "輯": 7353,
      "輸": 7354,
      "輻": 7355,
      "輾": 7356,
      "輿": 7357,
      "轄": 7358,
      "轉": 7359,
      "轍": 7360,
      "轎": 7361,
      "轟": 7362,
      "车": 7363,
      "轧": 7364,
      "轨": 7365,
      "轩": 7366,
      "轫": 7367,
      "转": 7368,
      "轭": 7369,
      "轮": 7370,
      "软": 7371,
      "轰": 7372,
      "轱": 7373,
      "轲": 7374,
      "轴": 7375,
      "轶": 7376,
      "轻": 7377,
      "载": 7378,
      "轾": 7379,
      "轿": 7380,
      "较": 7381,
      "辄": 7382,
      "辅": 7383,
      "辆": 7384,
      "辇": 7385,
      "辈": 7386,
      "辉": 7387,
      "辊": 7388,
      "辋": 7389,
      "辍": 7390,
      "辐": 7391,
      "辑": 7392,
      "输": 7393,
      "辕": 7394,
      "辖": 7395,
      "辗": 7396,
      "辘": 7397,
      "辙": 7398,
      "辛": 7399,
      "辜": 7400,
      "辞": 7401,
      "辟": 7402,
      "辣": 7403,
      "辦": 7404,
      "辨": 7405,
      "辩": 7406,
      "辫": 7407,
      "辭": 7408,
      "辮": 7409,
      "辯": 7410,
      "辰": 7411,
      "辱": 7412,
      "農": 7413,
      "边": 7414,
      "辽": 7415,
      "达": 7416,
      "迁": 7417,
      "迂": 7418,
      "迄": 7419,
      "迅": 7420,
      "过": 7421,
      "迈": 7422,
      "迎": 7423,
      "运": 7424,
      "近": 7425,
      "返": 7426,
      "迖": 7427,
      "还": 7428,
      "这": 7429,
      "进": 7430,
      "远": 7431,
      "违": 7432,
      "连": 7433,
      "迟": 7434,
      "迡": 7435,
      "迢": 7436,
      "迥": 7437,
      "迦": 7438,
      "迨": 7439,
      "迪": 7440,
      "迫": 7441,
      "迭": 7442,
      "述": 7443,
      "迳": 7444,
      "迴": 7445,
      "迷": 7446,
      "迸": 7447,
      "迹": 7448,
      "迺": 7449,
      "追": 7450,
      "退": 7451,
      "送": 7452,
      "适": 7453,
      "逃": 7454,
      "逄": 7455,
      "逅": 7456,
      "逆": 7457,
      "选": 7458,
      "逊": 7459,
      "逋": 7460,
      "逌": 7461,
      "逍": 7462,
      "透": 7463,
      "逐": 7464,
      "递": 7465,
      "途": 7466,
      "逗": 7467,
      "這": 7468,
      "通": 7469,
      "逛": 7470,
      "逝": 7471,
      "逞": 7472,
      "速": 7473,
      "造": 7474,
      "逡": 7475,
      "逢": 7476,
      "連": 7477,
      "逮": 7478,
      "週": 7479,
      "進": 7480,
      "逸": 7481,
      "逻": 7482,
      "逼": 7483,
      "逾": 7484,
      "遁": 7485,
      "遂": 7486,
      "遇": 7487,
      "遊": 7488,
      "運": 7489,
      "遍": 7490,
      "過": 7491,
      "遏": 7492,
      "遐": 7493,
      "遑": 7494,
      "遒": 7495,
      "道": 7496,
      "達": 7497,
      "違": 7498,
      "遗": 7499,
      "遙": 7500,
      "遛": 7501,
      "遜": 7502,
      "遞": 7503,
      "遠": 7504,
      "遢": 7505,
      "遣": 7506,
      "遥": 7507,
      "遨": 7508,
      "適": 7509,
      "遭": 7510,
      "遮": 7511,
      "遲": 7512,
      "遴": 7513,
      "遵": 7514,
      "遷": 7515,
      "選": 7516,
      "遺": 7517,
      "遼": 7518,
      "遽": 7519,
      "避": 7520,
      "邀": 7521,
      "邁": 7522,
      "邂": 7523,
      "邃": 7524,
      "還": 7525,
      "邈": 7526,
      "邊": 7527,
      "邋": 7528,
      "邏": 7529,
      "邑": 7530,
      "邓": 7531,
      "邝": 7532,
      "邟": 7533,
      "邢": 7534,
      "那": 7535,
      "邦": 7536,
      "邨": 7537,
      "邪": 7538,
      "邮": 7539,
      "邱": 7540,
      "邵": 7541,
      "邸": 7542,
      "邹": 7543,
      "邻": 7544,
      "邾": 7545,
      "郁": 7546,
      "郅": 7547,
      "郊": 7548,
      "郎": 7549,
      "郑": 7550,
      "郔": 7551,
      "郝": 7552,
      "郞": 7553,
      "郡": 7554,
      "部": 7555,
      "郪": 7556,
      "郭": 7557,
      "郴": 7558,
      "郵": 7559,
      "郸": 7560,
      "都": 7561,
      "鄂": 7562,
      "鄉": 7563,
      "鄔": 7564,
      "鄙": 7565,
      "鄢": 7566,
      "鄧": 7567,
      "鄭": 7568,
      "鄰": 7569,
      "酉": 7570,
      "酊": 7571,
      "酋": 7572,
      "酌": 7573,
      "配": 7574,
      "酐": 7575,
      "酒": 7576,
      "酕": 7577,
      "酖": 7578,
      "酗": 7579,
      "酚": 7580,
      "酝": 7581,
      "酣": 7582,
      "酥": 7583,
      "酩": 7584,
      "酪": 7585,
      "酬": 7586,
      "酮": 7587,
      "酯": 7588,
      "酰": 7589,
      "酱": 7590,
      "酵": 7591,
      "酶": 7592,
      "酷": 7593,
      "酸": 7594,
      "酿": 7595,
      "醃": 7596,
      "醇": 7597,
      "醉": 7598,
      "醋": 7599,
      "醍": 7600,
      "醐": 7601,
      "醒": 7602,
      "醚": 7603,
      "醛": 7604,
      "醜": 7605,
      "醫": 7606,
      "醬": 7607,
      "醮": 7608,
      "醯": 7609,
      "醱": 7610,
      "醴": 7611,
      "醺": 7612,
      "釀": 7613,
      "釁": 7614,
      "釆": 7615,
      "采": 7616,
      "釉": 7617,
      "释": 7618,
      "釋": 7619,
      "里": 7620,
      "重": 7621,
      "野": 7622,
      "量": 7623,
      "釐": 7624,
      "金": 7625,
      "釘": 7626,
      "釜": 7627,
      "針": 7628,
      "釣": 7629,
      "釦": 7630,
      "釬": 7631,
      "釭": 7632,
      "釱": 7633,
      "釵": 7634,
      "鈍": 7635,
      "鈔": 7636,
      "鈕": 7637,
      "鈣": 7638,
      "鈦": 7639,
      "鈴": 7640,
      "鈾": 7641,
      "鉅": 7642,
      "鉑": 7643,
      "鉖": 7644,
      "鉗": 7645,
      "鉛": 7646,
      "鉜": 7647,
      "鉤": 7648,
      "鉴": 7649,
      "鉶": 7650,
      "銀": 7651,
      "銅": 7652,
      "銘": 7653,
      "銜": 7654,
      "銡": 7655,
      "銫": 7656,
      "銬": 7657,
      "銱": 7658,
      "銳": 7659,
      "銶": 7660,
      "銷": 7661,
      "銹": 7662,
      "鋅": 7663,
      "鋒": 7664,
      "鋪": 7665,
      "鋸": 7666,
      "鋻": 7667,
      "鋼": 7668,
      "錄": 7669,
      "錘": 7670,
      "錢": 7671,
      "錦": 7672,
      "錨": 7673,
      "錫": 7674,
      "錯": 7675,
      "錶": 7676,
      "鍊": 7677,
      "鍋": 7678,
      "鍔": 7679,
      "鍛": 7680,
      "鍬": 7681,
      "鍰": 7682,
      "鍵": 7683,
      "鍾": 7684,
      "鎊": 7685,
      "鎔": 7686,
      "鎖": 7687,
      "鎗": 7688,
      "鎘": 7689,
      "鎚": 7690,
      "鎧": 7691,
      "鎮": 7692,
      "鎰": 7693,
      "鎴": 7694,
      "鏈": 7695,
      "鏍": 7696,
      "鏓": 7697,
      "鏖": 7698,
      "鏘": 7699,
      "鏝": 7700,
      "鏟": 7701,
      "鏡": 7702,
      "鏢": 7703,
      "鏽": 7704,
      "鐐": 7705,
      "鐘": 7706,
      "鐮": 7707,
      "鐲": 7708,
      "鐳": 7709,
      "鐵": 7710,
      "鑄": 7711,
      "鑊": 7712,
      "鑒": 7713,
      "鑣": 7714,
      "鑫": 7715,
      "鑰": 7716,
      "鑲": 7717,
      "鑽": 7718,
      "鑿": 7719,
      "针": 7720,
      "钉": 7721,
      "钊": 7722,
      "钋": 7723,
      "钍": 7724,
      "钎": 7725,
      "钐": 7726,
      "钓": 7727,
      "钙": 7728,
      "钚": 7729,
      "钛": 7730,
      "钝": 7731,
      "钞": 7732,
      "钟": 7733,
      "钠": 7734,
      "钡": 7735,
      "钢": 7736,
      "钥": 7737,
      "钦": 7738,
      "钧": 7739,
      "钨": 7740,
      "钩": 7741,
      "钮": 7742,
      "钯": 7743,
      "钱": 7744,
      "钳": 7745,
      "钴": 7746,
      "钵": 7747,
      "钶": 7748,
      "钸": 7749,
      "钹": 7750,
      "钻": 7751,
      "钼": 7752,
      "钽": 7753,
      "钾": 7754,
      "铀": 7755,
      "铁": 7756,
      "铂": 7757,
      "铃": 7758,
      "铅": 7759,
      "铆": 7760,
      "铈": 7761,
      "铉": 7762,
      "铋": 7763,
      "铌": 7764,
      "铍": 7765,
      "铎": 7766,
      "铏": 7767,
      "铐": 7768,
      "铕": 7769,
      "铛": 7770,
      "铜": 7771,
      "铝": 7772,
      "铟": 7773,
      "铠": 7774,
      "铢": 7775,
      "铤": 7776,
      "铪": 7777,
      "铬": 7778,
      "铭": 7779,
      "铮": 7780,
      "铯": 7781,
      "铰": 7782,
      "铱": 7783,
      "铲": 7784,
      "铳": 7785,
      "铵": 7786,
      "银": 7787,
      "铸": 7788,
      "铺": 7789,
      "链": 7790,
      "铿": 7791,
      "销": 7792,
      "锁": 7793,
      "锂": 7794,
      "锃": 7795,
      "锄": 7796,
      "锅": 7797,
      "锆": 7798,
      "锈": 7799,
      "锉": 7800,
      "锋": 7801,
      "锌": 7802,
      "锏": 7803,
      "锐": 7804,
      "锑": 7805,
      "锒": 7806,
      "错": 7807,
      "锚": 7808,
      "锡": 7809,
      "锢": 7810,
      "锣": 7811,
      "锤": 7812,
      "锥": 7813,
      "锦": 7814,
      "锭": 7815,
      "键": 7816,
      "锯": 7817,
      "锰": 7818,
      "锱": 7819,
      "锲": 7820,
      "锵": 7821,
      "锶": 7822,
      "锹": 7823,
      "锺": 7824,
      "锻": 7825,
      "镀": 7826,
      "镁": 7827,
      "镇": 7828,
      "镉": 7829,
      "镊": 7830,
      "镍": 7831,
      "镐": 7832,
      "镑": 7833,
      "镓": 7834,
      "镕": 7835,
      "镖": 7836,
      "镗": 7837,
      "镛": 7838,
      "镜": 7839,
      "镣": 7840,
      "镦": 7841,
      "镬": 7842,
      "镭": 7843,
      "镯": 7844,
      "镰": 7845,
      "镳": 7846,
      "镶": 7847,
      "長": 7848,
      "长": 7849,
      "門": 7850,
      "閃": 7851,
      "閉": 7852,
      "開": 7853,
      "閑": 7854,
      "閒": 7855,
      "間": 7856,
      "閕": 7857,
      "閘": 7858,
      "閟": 7859,
      "閣": 7860,
      "閥": 7861,
      "閨": 7862,
      "閩": 7863,
      "閱": 7864,
      "閿": 7865,
      "闆": 7866,
      "闇": 7867,
      "闊": 7868,
      "闌": 7869,
      "闕": 7870,
      "闖": 7871,
      "關": 7872,
      "闡": 7873,
      "闢": 7874,
      "门": 7875,
      "闩": 7876,
      "闪": 7877,
      "闭": 7878,
      "问": 7879,
      "闯": 7880,
      "闰": 7881,
      "闱": 7882,
      "闲": 7883,
      "间": 7884,
      "闵": 7885,
      "闷": 7886,
      "闸": 7887,
      "闹": 7888,
      "闺": 7889,
      "闻": 7890,
      "闽": 7891,
      "阀": 7892,
      "阁": 7893,
      "阂": 7894,
      "阄": 7895,
      "阅": 7896,
      "阈": 7897,
      "阉": 7898,
      "阎": 7899,
      "阐": 7900,
      "阑": 7901,
      "阔": 7902,
      "阖": 7903,
      "阙": 7904,
      "阜": 7905,
      "阞": 7906,
      "队": 7907,
      "阡": 7908,
      "阨": 7909,
      "阪": 7910,
      "阮": 7911,
      "阰": 7912,
      "阱": 7913,
      "防": 7914,
      "阳": 7915,
      "阴": 7916,
      "阵": 7917,
      "阶": 7918,
      "阻": 7919,
      "阿": 7920,
      "陀": 7921,
      "附": 7922,
      "际": 7923,
      "陆": 7924,
      "陈": 7925,
      "陋": 7926,
      "陌": 7927,
      "降": 7928,
      "陎": 7929,
      "限": 7930,
      "陑": 7931,
      "陓": 7932,
      "陔": 7933,
      "陕": 7934,
      "陛": 7935,
      "陡": 7936,
      "院": 7937,
      "陣": 7938,
      "除": 7939,
      "陨": 7940,
      "险": 7941,
      "陪": 7942,
      "陬": 7943,
      "陰": 7944,
      "陲": 7945,
      "陳": 7946,
      "陵": 7947,
      "陶": 7948,
      "陷": 7949,
      "陸": 7950,
      "陽": 7951,
      "隅": 7952,
      "隆": 7953,
      "隊": 7954,
      "隋": 7955,
      "階": 7956,
      "随": 7957,
      "隐": 7958,
      "隔": 7959,
      "隘": 7960,
      "隙": 7961,
      "際": 7962,
      "障": 7963,
      "隠": 7964,
      "隧": 7965,
      "隨": 7966,
      "險": 7967,
      "隱": 7968,
      "隴": 7969,
      "隶": 7970,
      "隸": 7971,
      "隻": 7972,
      "隼": 7973,
      "隽": 7974,
      "难": 7975,
      "雀": 7976,
      "雁": 7977,
      "雄": 7978,
      "雅": 7979,
      "集": 7980,
      "雇": 7981,
      "雉": 7982,
      "雌": 7983,
      "雍": 7984,
      "雏": 7985,
      "雕": 7986,
      "雖": 7987,
      "雙": 7988,
      "雛": 7989,
      "雜": 7990,
      "雞": 7991,
      "離": 7992,
      "難": 7993,
      "雨": 7994,
      "雪": 7995,
      "雯": 7996,
      "雲": 7997,
      "雳": 7998,
      "零": 7999,
      "雷": 8000,
      "雹": 8001,
      "電": 8002,
      "雾": 8003,
      "需": 8004,
      "霄": 8005,
      "霆": 8006,
      "震": 8007,
      "霉": 8008,
      "霍": 8009,
      "霎": 8010,
      "霏": 8011,
      "霓": 8012,
      "霖": 8013,
      "霜": 8014,
      "霞": 8015,
      "霧": 8016,
      "霫": 8017,
      "霰": 8018,
      "露": 8019,
      "霸": 8020,
      "霹": 8021,
      "霾": 8022,
      "靂": 8023,
      "靈": 8024,
      "青": 8025,
      "靓": 8026,
      "靖": 8027,
      "静": 8028,
      "靚": 8029,
      "靜": 8030,
      "非": 8031,
      "靠": 8032,
      "靡": 8033,
      "面": 8034,
      "革": 8035,
      "靳": 8036,
      "靴": 8037,
      "靶": 8038,
      "靼": 8039,
      "鞋": 8040,
      "鞍": 8041,
      "鞏": 8042,
      "鞑": 8043,
      "鞘": 8044,
      "鞠": 8045,
      "鞣": 8046,
      "鞭": 8047,
      "韁": 8048,
      "韃": 8049,
      "韋": 8050,
      "韌": 8051,
      "韓": 8052,
      "韜": 8053,
      "韦": 8054,
      "韧": 8055,
      "韩": 8056,
      "韭": 8057,
      "音": 8058,
      "韵": 8059,
      "韶": 8060,
      "韻": 8061,
      "響": 8062,
      "頁": 8063,
      "頂": 8064,
      "頃": 8065,
      "項": 8066,
      "順": 8067,
      "須": 8068,
      "頌": 8069,
      "頏": 8070,
      "預": 8071,
      "頑": 8072,
      "頒": 8073,
      "頓": 8074,
      "頗": 8075,
      "領": 8076,
      "頤": 8077,
      "頭": 8078,
      "頰": 8079,
      "頸": 8080,
      "頻": 8081,
      "顆": 8082,
      "題": 8083,
      "額": 8084,
      "顎": 8085,
      "顏": 8086,
      "顔": 8087,
      "願": 8088,
      "顛": 8089,
      "類": 8090,
      "顧": 8091,
      "顫": 8092,
      "顯": 8093,
      "顱": 8094,
      "页": 8095,
      "顶": 8096,
      "顷": 8097,
      "项": 8098,
      "顺": 8099,
      "须": 8100,
      "顽": 8101,
      "顾": 8102,
      "顿": 8103,
      "颁": 8104,
      "颂": 8105,
      "预": 8106,
      "颅": 8107,
      "领": 8108,
      "颇": 8109,
      "颈": 8110,
      "颊": 8111,
      "颌": 8112,
      "颏": 8113,
      "颐": 8114,
      "频": 8115,
      "颓": 8116,
      "颖": 8117,
      "颗": 8118,
      "题": 8119,
      "颚": 8120,
      "颜": 8121,
      "额": 8122,
      "颞": 8123,
      "颠": 8124,
      "颤": 8125,
      "颧": 8126,
      "風": 8127,
      "颶": 8128,
      "颼": 8129,
      "飄": 8130,
      "飆": 8131,
      "风": 8132,
      "飓": 8133,
      "飕": 8134,
      "飘": 8135,
      "飙": 8136,
      "飚": 8137,
      "飛": 8138,
      "飞": 8139,
      "食": 8140,
      "飢": 8141,
      "飧": 8142,
      "飨": 8143,
      "飯": 8144,
      "飲": 8145,
      "飽": 8146,
      "飾": 8147,
      "餃": 8148,
      "餅": 8149,
      "養": 8150,
      "餌": 8151,
      "餐": 8152,
      "餒": 8153,
      "餓": 8154,
      "餘": 8155,
      "餞": 8156,
      "餡": 8157,
      "館": 8158,
      "餮": 8159,
      "餵": 8160,
      "餿": 8161,
      "饉": 8162,
      "饋": 8163,
      "饑": 8164,
      "饒": 8165,
      "饕": 8166,
      "饞": 8167,
      "饥": 8168,
      "饨": 8169,
      "饪": 8170,
      "饭": 8171,
      "饮": 8172,
      "饯": 8173,
      "饰": 8174,
      "饱": 8175,
      "饲": 8176,
      "饵": 8177,
      "饶": 8178,
      "饷": 8179,
      "饺": 8180,
      "饼": 8181,
      "饿": 8182,
      "馀": 8183,
      "馁": 8184,
      "馄": 8185,
      "馅": 8186,
      "馆": 8187,
      "馈": 8188,
      "馊": 8189,
      "馋": 8190,
      "馍": 8191,
      "馏": 8192,
      "馐": 8193,
      "馑": 8194,
      "馒": 8195,
      "首": 8196,
      "香": 8197,
      "馥": 8198,
      "馨": 8199,
      "馬": 8200,
      "馭": 8201,
      "馮": 8202,
      "馱": 8203,
      "馳": 8204,
      "馴": 8205,
      "駁": 8206,
      "駐": 8207,
      "駕": 8208,
      "駛": 8209,
      "駝": 8210,
      "駡": 8211,
      "駭": 8212,
      "駱": 8213,
      "騁": 8214,
      "騎": 8215,
      "騙": 8216,
      "騰": 8217,
      "騷": 8218,
      "騾": 8219,
      "驅": 8220,
      "驕": 8221,
      "驗": 8222,
      "驚": 8223,
      "驟": 8224,
      "驢": 8225,
      "马": 8226,
      "驭": 8227,
      "驮": 8228,
      "驯": 8229,
      "驰": 8230,
      "驱": 8231,
      "驳": 8232,
      "驴": 8233,
      "驶": 8234,
      "驷": 8235,
      "驹": 8236,
      "驻": 8237,
      "驼": 8238,
      "驽": 8239,
      "驾": 8240,
      "驿": 8241,
      "骁": 8242,
      "骂": 8243,
      "骄": 8244,
      "骆": 8245,
      "骇": 8246,
      "骋": 8247,
      "验": 8248,
      "骏": 8249,
      "骑": 8250,
      "骗": 8251,
      "骚": 8252,
      "骛": 8253,
      "骜": 8254,
      "骠": 8255,
      "骡": 8256,
      "骤": 8257,
      "骨": 8258,
      "骯": 8259,
      "骰": 8260,
      "骷": 8261,
      "骸": 8262,
      "骼": 8263,
      "髂": 8264,
      "髅": 8265,
      "髋": 8266,
      "髏": 8267,
      "髒": 8268,
      "髓": 8269,
      "體": 8270,
      "高": 8271,
      "髡": 8272,
      "髦": 8273,
      "髭": 8274,
      "髮": 8275,
      "髻": 8276,
      "鬃": 8277,
      "鬆": 8278,
      "鬍": 8279,
      "鬓": 8280,
      "鬚": 8281,
      "鬣": 8282,
      "鬥": 8283,
      "鬧": 8284,
      "鬨": 8285,
      "鬱": 8286,
      "鬲": 8287,
      "鬼": 8288,
      "鬾": 8289,
      "魁": 8290,
      "魂": 8291,
      "魄": 8292,
      "魅": 8293,
      "魇": 8294,
      "魉": 8295,
      "魏": 8296,
      "魔": 8297,
      "魘": 8298,
      "魚": 8299,
      "魣": 8300,
      "魯": 8301,
      "魷": 8302,
      "鮑": 8303,
      "鮟": 8304,
      "鮨": 8305,
      "鮮": 8306,
      "鯉": 8307,
      "鯊": 8308,
      "鯨": 8309,
      "鯰": 8310,
      "鰥": 8311,
      "鰨": 8312,
      "鰭": 8313,
      "鰹": 8314,
      "鱇": 8315,
      "鱔": 8316,
      "鱷": 8317,
      "鱻": 8318,
      "鱼": 8319,
      "鱿": 8320,
      "鲀": 8321,
      "鲁": 8322,
      "鲈": 8323,
      "鲍": 8324,
      "鲐": 8325,
      "鲑": 8326,
      "鲔": 8327,
      "鲗": 8328,
      "鲛": 8329,
      "鲜": 8330,
      "鲡": 8331,
      "鲢": 8332,
      "鲣": 8333,
      "鲤": 8334,
      "鲥": 8335,
      "鲨": 8336,
      "鲩": 8337,
      "鲫": 8338,
      "鲭": 8339,
      "鲮": 8340,
      "鲱": 8341,
      "鲳": 8342,
      "鲵": 8343,
      "鲶": 8344,
      "鲷": 8345,
      "鲸": 8346,
      "鲹": 8347,
      "鲻": 8348,
      "鲽": 8349,
      "鲾": 8350,
      "鳃": 8351,
      "鳄": 8352,
      "鳅": 8353,
      "鳉": 8354,
      "鳌": 8355,
      "鳍": 8356,
      "鳎": 8357,
      "鳏": 8358,
      "鳐": 8359,
      "鳕": 8360,
      "鳖": 8361,
      "鳗": 8362,
      "鳞": 8363,
      "鳟": 8364,
      "鳥": 8365,
      "鳳": 8366,
      "鳴": 8367,
      "鴃": 8368,
      "鴇": 8369,
      "鴉": 8370,
      "鴒": 8371,
      "鴛": 8372,
      "鴨": 8373,
      "鴻": 8374,
      "鴿": 8375,
      "鵄": 8376,
      "鵑": 8377,
      "鵝": 8378,
      "鵡": 8379,
      "鵪": 8380,
      "鶉": 8381,
      "鶨": 8382,
      "鶪": 8383,
      "鶯": 8384,
      "鶴": 8385,
      "鶺": 8386,
      "鷄": 8387,
      "鷉": 8388,
      "鷗": 8389,
      "鷲": 8390,
      "鷹": 8391,
      "鷺": 8392,
      "鸊": 8393,
      "鸌": 8394,
      "鸚": 8395,
      "鸛": 8396,
      "鸟": 8397,
      "鸠": 8398,
      "鸡": 8399,
      "鸢": 8400,
      "鸣": 8401,
      "鸥": 8402,
      "鸦": 8403,
      "鸨": 8404,
      "鸫": 8405,
      "鸬": 8406,
      "鸭": 8407,
      "鸮": 8408,
      "鸯": 8409,
      "鸳": 8410,
      "鸵": 8411,
      "鸸": 8412,
      "鸽": 8413,
      "鸾": 8414,
      "鸿": 8415,
      "鹃": 8416,
      "鹅": 8417,
      "鹈": 8418,
      "鹉": 8419,
      "鹊": 8420,
      "鹋": 8421,
      "鹌": 8422,
      "鹏": 8423,
      "鹑": 8424,
      "鹓": 8425,
      "鹕": 8426,
      "鹗": 8427,
      "鹜": 8428,
      "鹞": 8429,
      "鹣": 8430,
      "鹤": 8431,
      "鹦": 8432,
      "鹩": 8433,
      "鹪": 8434,
      "鹫": 8435,
      "鹬": 8436,
      "鹰": 8437,
      "鹱": 8438,
      "鹳": 8439,
      "鹵": 8440,
      "鹹": 8441,
      "鹼": 8442,
      "鹽": 8443,
      "鹿": 8444,
      "麂": 8445,
      "麋": 8446,
      "麒": 8447,
      "麓": 8448,
      "麗": 8449,
      "麝": 8450,
      "麟": 8451,
      "麥": 8452,
      "麦": 8453,
      "麩": 8454,
      "麵": 8455,
      "麸": 8456,
      "麻": 8457,
      "麼": 8458,
      "麽": 8459,
      "麾": 8460,
      "黃": 8461,
      "黄": 8462,
      "黍": 8463,
      "黎": 8464,
      "黏": 8465,
      "黑": 8466,
      "黔": 8467,
      "默": 8468,
      "黛": 8469,
      "黜": 8470,
      "黝": 8471,
      "點": 8472,
      "黠": 8473,
      "黢": 8474,
      "黧": 8475,
      "黨": 8476,
      "黩": 8477,
      "黯": 8478,
      "鼎": 8479,
      "鼓": 8480,
      "鼠": 8481,
      "鼬": 8482,
      "鼴": 8483,
      "鼹": 8484,
      "鼻": 8485,
      "鼾": 8486,
      "齁": 8487,
      "齊": 8488,
      "齋": 8489,
      "齐": 8490,
      "齒": 8491,
      "齡": 8492,
      "齣": 8493,
      "齦": 8494,
      "齬": 8495,
      "齿": 8496,
      "龄": 8497,
      "龈": 8498,
      "龊": 8499,
      "龋": 8500,
      "龌": 8501,
      "龍": 8502,
      "龐": 8503,
      "龕": 8504,
      "龙": 8505,
      "龚": 8506,
      "龛": 8507,
      "龜": 8508,
      "龟": 8509,
      "ꌢ": 8510,
      "뇳": 8511,
      "딚": 8512,
      "루": 8513,
      "뱾": 8514,
      "쵽": 8515,
      "펳": 8516,
      "": 8517,
      "": 8518,
      "": 8519,
      "": 8520,
      "": 8521,
      "": 8522,
      "": 8523,
      "": 8524,
      "": 8525,
      "": 8526,
      "": 8527,
      "": 8528,
      "": 8529,
      "": 8530,
      "": 8531,
      "": 8532,
      "": 8533,
      "": 8534,
      "": 8535,
      "": 8536,
      "": 8537,
      "": 8538,
      "": 8539,
      "": 8540,
      "": 8541,
      "": 8542,
      "": 8543,
      "": 8544,
      "": 8545,
      "": 8546,
      "": 8547,
      "": 8548,
      "": 8549,
      "": 8550,
      "": 8551,
      "": 8552,
      "": 8553,
      "": 8554,
      "": 8555,
      "": 8556,
      "": 8557,
      "": 8558,
      "": 8559,
      "": 8560,
      "": 8561,
      "": 8562,
      "": 8563,
      "": 8564,
      "": 8565,
      "": 8566,
      "": 8567,
      "": 8568,
      "": 8569,
      "": 8570,
      "": 8571,
      "": 8572,
      "": 8573,
      "": 8574,
      "": 8575,
      "": 8576,
      "": 8577,
      "": 8578,
      "": 8579,
      "": 8580,
      "": 8581,
      "": 8582,
      "": 8583,
      "": 8584,
      "": 8585,
      "": 8586,
      "": 8587,
      "": 8588,
      "": 8589,
      "": 8590,
      "": 8591,
      "": 8592,
      "": 8593,
      "": 8594,
      "": 8595,
      "": 8596,
      "": 8597,
      "": 8598,
      "": 8599,
      "": 8600,
      "": 8601,
      "": 8602,
      "": 8603,
      "": 8604,
      "": 8605,
      "": 8606,
      "": 8607,
      "": 8608,
      "": 8609,
      "": 8610,
      "": 8611,
      "": 8612,
      "": 8613,
      "": 8614,
      "": 8615,
      "": 8616,
      "": 8617,
      "": 8618,
      "": 8619,
      "": 8620,
      "": 8621,
      "": 8622,
      "": 8623,
      "": 8624,
      "": 8625,
      "": 8626,
      "": 8627,
      "": 8628,
      "": 8629,
      "": 8630,
      "": 8631,
      "": 8632,
      "": 8633,
      "": 8634,
      "": 8635,
      "": 8636,
      "": 8637,
      "": 8638,
      "": 8639,
      "": 8640,
      "": 8641,
      "": 8642,
      "": 8643,
      "": 8644,
      "": 8645,
      "": 8646,
      "": 8647,
      "": 8648,
      "": 8649,
      "": 8650,
      "": 8651,
      "": 8652,
      "": 8653,
      "": 8654,
      "": 8655,
      "": 8656,
      "": 8657,
      "": 8658,
      "": 8659,
      "": 8660,
      "": 8661,
      "": 8662,
      "": 8663,
      "": 8664,
      "": 8665,
      "": 8666,
      "": 8667,
      "": 8668,
      "": 8669,
      "": 8670,
      "": 8671,
      "": 8672,
      "": 8673,
      "": 8674,
      "": 8675,
      "": 8676,
      "": 8677,
      "": 8678,
      "": 8679,
      "": 8680,
      "": 8681,
      "": 8682,
      "": 8683,
      "": 8684,
      "": 8685,
      "": 8686,
      "": 8687,
      "": 8688,
      "": 8689,
      "": 8690,
      "": 8691,
      "": 8692,
      "": 8693,
      "": 8694,
      "": 8695,
      "": 8696,
      "": 8697,
      "": 8698,
      "": 8699,
      "": 8700,
      "": 8701,
      "": 8702,
      "": 8703,
      "": 8704,
      "": 8705,
      "": 8706,
      "": 8707,
      "": 8708,
      "": 8709,
      "": 8710,
      "": 8711,
      "": 8712,
      "": 8713,
      "": 8714,
      "": 8715,
      "": 8716,
      "": 8717,
      "": 8718,
      "": 8719,
      "": 8720,
      "": 8721,
      "": 8722,
      "": 8723,
      "": 8724,
      "": 8725,
      "": 8726,
      "": 8727,
      "": 8728,
      "": 8729,
      "": 8730,
      "": 8731,
      "": 8732,
      "": 8733,
      "": 8734,
      "": 8735,
      "": 8736,
      "": 8737,
      "": 8738,
      "": 8739,
      "": 8740,
      "": 8741,
      "": 8742,
      "": 8743,
      "": 8744,
      "": 8745,
      "": 8746,
      "": 8747,
      "": 8748,
      "": 8749,
      "": 8750,
      "": 8751,
      "": 8752,
      "": 8753,
      "": 8754,
      "": 8755,
      "": 8756,
      "": 8757,
      "": 8758,
      "": 8759,
      "": 8760,
      "": 8761,
      "": 8762,
      "": 8763,
      "": 8764,
      "": 8765,
      "": 8766,
      "": 8767,
      "": 8768,
      "": 8769,
      "": 8770,
      "": 8771,
      "": 8772,
      "": 8773,
      "": 8774,
      "": 8775,
      "": 8776,
      "": 8777,
      "": 8778,
      "": 8779,
      "": 8780,
      "": 8781,
      "": 8782,
      "": 8783,
      "": 8784,
      "": 8785,
      "": 8786,
      "": 8787,
      "": 8788,
      "": 8789,
      "": 8790,
      "": 8791,
      "": 8792,
      "": 8793,
      "": 8794,
      "": 8795,
      "": 8796,
      "": 8797,
      "": 8798,
      "": 8799,
      "": 8800,
      "": 8801,
      "": 8802,
      "": 8803,
      "": 8804,
      "": 8805,
      "": 8806,
      "": 8807,
      "": 8808,
      "": 8809,
      "": 8810,
      "": 8811,
      "": 8812,
      "": 8813,
      "": 8814,
      "": 8815,
      "": 8816,
      "": 8817,
      "": 8818,
      "": 8819,
      "": 8820,
      "": 8821,
      "": 8822,
      "": 8823,
      "": 8824,
      "": 8825,
      "": 8826,
      "": 8827,
      "": 8828,
      "": 8829,
      "": 8830,
      "": 8831,
      "": 8832,
      "": 8833,
      "": 8834,
      "": 8835,
      "": 8836,
      "": 8837,
      "": 8838,
      "": 8839,
      "": 8840,
      "": 8841,
      "": 8842,
      "": 8843,
      "": 8844,
      "": 8845,
      "": 8846,
      "": 8847,
      "": 8848,
      "": 8849,
      "": 8850,
      "": 8851,
      "": 8852,
      "": 8853,
      "": 8854,
      "": 8855,
      "": 8856,
      "": 8857,
      "": 8858,
      "": 8859,
      "": 8860,
      "": 8861,
      "": 8862,
      "": 8863,
      "": 8864,
      "": 8865,
      "": 8866,
      "": 8867,
      "": 8868,
      "": 8869,
      "": 8870,
      "": 8871,
      "": 8872,
      "": 8873,
      "": 8874,
      "": 8875,
      "": 8876,
      "": 8877,
      "": 8878,
      "": 8879,
      "": 8880,
      "": 8881,
      "": 8882,
      "": 8883,
      "": 8884,
      "": 8885,
      "": 8886,
      "": 8887,
      "": 8888,
      "": 8889,
      "": 8890,
      "": 8891,
      "": 8892,
      "": 8893,
      "": 8894,
      "": 8895,
      "": 8896,
      "": 8897,
      "": 8898,
      "": 8899,
      "": 8900,
      "": 8901,
      "": 8902,
      "": 8903,
      "": 8904,
      "": 8905,
      "": 8906,
      "": 8907,
      "": 8908,
      "": 8909,
      "": 8910,
      "": 8911,
      "": 8912,
      "": 8913,
      "": 8914,
      "": 8915,
      "": 8916,
      "": 8917,
      "": 8918,
      "": 8919,
      "": 8920,
      "": 8921,
      "": 8922,
      "": 8923,
      "": 8924,
      "": 8925,
      "": 8926,
      "": 8927,
      "": 8928,
      "": 8929,
      "": 8930,
      "": 8931,
      "": 8932,
      "": 8933,
      "": 8934,
      "": 8935,
      "": 8936,
      "": 8937,
      "": 8938,
      "": 8939,
      "": 8940,
      "": 8941,
      "": 8942,
      "": 8943,
      "": 8944,
      "": 8945,
      "": 8946,
      "": 8947,
      "": 8948,
      "": 8949,
      "": 8950,
      "": 8951,
      "": 8952,
      "": 8953,
      "": 8954,
      "": 8955,
      "": 8956,
      "": 8957,
      "": 8958,
      "": 8959,
      "": 8960,
      "": 8961,
      "": 8962,
      "": 8963,
      "": 8964,
      "": 8965,
      "": 8966,
      "": 8967,
      "": 8968,
      "": 8969,
      "": 8970,
      "": 8971,
      "": 8972,
      "": 8973,
      "": 8974,
      "": 8975,
      "": 8976,
      "": 8977,
      "": 8978,
      "": 8979,
      "": 8980,
      "": 8981,
      "": 8982,
      "": 8983,
      "": 8984,
      "": 8985,
      "": 8986,
      "": 8987,
      "": 8988,
      "": 8989,
      "": 8990,
      "": 8991,
      "": 8992,
      "": 8993,
      "": 8994,
      "": 8995,
      "": 8996,
      "": 8997,
      "": 8998,
      "": 8999,
      "": 9000,
      "": 9001,
      "": 9002,
      "": 9003,
      "": 9004,
      "": 9005,
      "": 9006,
      "": 9007,
      "": 9008,
      "": 9009,
      "": 9010,
      "": 9011,
      "": 9012,
      "": 9013,
      "": 9014,
      "": 9015,
      "": 9016,
      "": 9017,
      "": 9018,
      "": 9019,
      "": 9020,
      "": 9021,
      "": 9022,
      "": 9023,
      "": 9024,
      "": 9025,
      "": 9026,
      "": 9027,
      "": 9028,
      "": 9029,
      "": 9030,
      "": 9031,
      "": 9032,
      "": 9033,
      "": 9034,
      "": 9035,
      "": 9036,
      "": 9037,
      "": 9038,
      "": 9039,
      "": 9040,
      "": 9041,
      "": 9042,
      "": 9043,
      "": 9044,
      "": 9045,
      "": 9046,
      "": 9047,
      "": 9048,
      "": 9049,
      "": 9050,
      "": 9051,
      "": 9052,
      "": 9053,
      "": 9054,
      "": 9055,
      "": 9056,
      "": 9057,
      "": 9058,
      "": 9059,
      "立": 9060,
      "行": 9061,
      "ﬁ": 9062,
      "ﬂ": 9063,
      "﵃": 9064,
      "﷓": 9065,
      "︰": 9066,
      "︱": 9067,
      "︳": 9068,
      "︶": 9069,
      "︸": 9070,
      "︹": 9071,
      "︺": 9072,
      "︽": 9073,
      "︾": 9074,
      "︿": 9075,
      "﹀": 9076,
      "﹁": 9077,
      "﹄": 9078,
      "﹉": 9079,
      "﹊": 9080,
      "﹋": 9081,
      "﹍": 9082,
      "﹎": 9083,
      "﹐": 9084,
      "﹑": 9085,
      "﹒": 9086,
      "﹔": 9087,
      "﹖": 9088,
      "﹗": 9089,
      "﹙": 9090,
      "﹚": 9091,
      "﹛": 9092,
      "﹜": 9093,
      "﹝": 9094,
      "﹞": 9095,
      "﹟": 9096,
      "﹠": 9097,
      "﹡": 9098,
      "﹣": 9099,
      "ﺀ": 9100,
      "ﺁ": 9101,
      "ﺃ": 9102,
      "ﺄ": 9103,
      "ﺅ": 9104,
      "ﺆ": 9105,
      "ﺇ": 9106,
      "ﺈ": 9107,
      "ﺊ": 9108,
      "ﺋ": 9109,
      "ﺌ": 9110,
      "ﺍ": 9111,
      "ﺎ": 9112,
      "ﺏ": 9113,
      "ﺐ": 9114,
      "ﺑ": 9115,
      "ﺒ": 9116,
      "ﺓ": 9117,
      "ﺔ": 9118,
      "ﺕ": 9119,
      "ﺖ": 9120,
      "ﺗ": 9121,
      "ﺘ": 9122,
      "ﺙ": 9123,
      "ﺚ": 9124,
      "ﺛ": 9125,
      "ﺜ": 9126,
      "ﺝ": 9127,
      "ﺟ": 9128,
      "ﺠ": 9129,
      "ﺡ": 9130,
      "ﺢ": 9131,
      "ﺣ": 9132,
      "ﺤ": 9133,
      "ﺧ": 9134,
      "ﺨ": 9135,
      "ﺩ": 9136,
      "ﺪ": 9137,
      "ﺫ": 9138,
      "ﺬ": 9139,
      "ﺭ": 9140,
      "ﺮ": 9141,
      "ﺯ": 9142,
      "ﺰ": 9143,
      "ﺱ": 9144,
      "ﺲ": 9145,
      "ﺳ": 9146,
      "ﺴ": 9147,
      "ﺶ": 9148,
      "ﺷ": 9149,
      "ﺸ": 9150,
      "ﺹ": 9151,
      "ﺺ": 9152,
      "ﺻ": 9153,
      "ﺼ": 9154,
      "ﺾ": 9155,
      "ﺿ": 9156,
      "ﻀ": 9157,
      "ﻂ": 9158,
      "ﻃ": 9159,
      "ﻄ": 9160,
      "ﻆ": 9161,
      "ﻇ": 9162,
      "ﻈ": 9163,
      "ﻉ": 9164,
      "ﻊ": 9165,
      "ﻋ": 9166,
      "ﻌ": 9167,
      "ﻏ": 9168,
      "ﻐ": 9169,
      "ﻑ": 9170,
      "ﻒ": 9171,
      "ﻓ": 9172,
      "ﻔ": 9173,
      "ﻕ": 9174,
      "ﻖ": 9175,
      "ﻗ": 9176,
      "ﻘ": 9177,
      "ﻙ": 9178,
      "ﻚ": 9179,
      "ﻛ": 9180,
      "ﻜ": 9181,
      "ﻝ": 9182,
      "ﻞ": 9183,
      "ﻟ": 9184,
      "ﻠ": 9185,
      "ﻡ": 9186,
      "ﻢ": 9187,
      "ﻣ": 9188,
      "ﻤ": 9189,
      "ﻥ": 9190,
      "ﻦ": 9191,
      "ﻧ": 9192,
      "ﻨ": 9193,
      "ﻩ": 9194,
      "ﻪ": 9195,
      "ﻫ": 9196,
      "ﻬ": 9197,
      "ﻭ": 9198,
      "ﻮ": 9199,
      "ﻯ": 9200,
      "ﻰ": 9201,
      "ﻱ": 9202,
      "ﻲ": 9203,
      "ﻳ": 9204,
      "ﻴ": 9205,
      "ﻵ": 9206,
      "ﻷ": 9207,
      "ﻹ": 9208,
      "ﻺ": 9209,
      "ﻻ": 9210,
      "ﻼ": 9211,
      "！": 9212,
      "＂": 9213,
      "＃": 9214,
      "＄": 9215,
      "％": 9216,
      "＆": 9217,
      "＇": 9218,
      "（": 9219,
      "）": 9220,
      "＊": 9221,
      "＋": 9222,
      "，": 9223,
      "－": 9224,
      "．": 9225,
      "／": 9226,
      "０": 9227,
      "１": 9228,
      "２": 9229,
      "３": 9230,
      "４": 9231,
      "５": 9232,
      "６": 9233,
      "７": 9234,
      "８": 9235,
      "９": 9236,
      "：": 9237,
      "；": 9238,
      "＜": 9239,
      "＝": 9240,
      "＞": 9241,
      "？": 9242,
      "＠": 9243,
      "Ａ": 9244,
      "Ｂ": 9245,
      "Ｃ": 9246,
      "Ｄ": 9247,
      "Ｅ": 9248,
      "Ｆ": 9249,
      "Ｈ": 9250,
      "Ｉ": 9251,
      "Ｊ": 9252,
      "Ｋ": 9253,
      "Ｍ": 9254,
      "Ｎ": 9255,
      "Ｏ": 9256,
      "Ｒ": 9257,
      "Ｓ": 9258,
      "Ｔ": 9259,
      "Ｙ": 9260,
      "［": 9261,
      "＼": 9262,
      "］": 9263,
      "＾": 9264,
      "＿": 9265,
      "｀": 9266,
      "ａ": 9267,
      "ｂ": 9268,
      "ｄ": 9269,
      "ｅ": 9270,
      "ｆ": 9271,
      "ｏ": 9272,
      "｛": 9273,
      "｝": 9274,
      "～": 9275,
      "｡": 9276,
      "｢": 9277,
      "｣": 9278,
      "､": 9279,
      "･": 9280,
      "￡": 9281,
      "￣": 9282,
      "￭": 9283,
      "￮": 9284,
      "�": 9285,
      "𡃁": 9286,
      "񈡔": 9287,
      "񐨒": 9288,
      "񔲷": 9289,
      "򆁱": 9290,
      "򌭼": 9291,
      "򕟔": 9292,
      "򕟹": 9293,
      "򕟿": 9294,
      "򵥵": 9295,
      "򸼸": 9296,
      "򻡌": 9297,
      "򽩼": 9298,
      "򿪵": 9299,
      "򿪻": 9300,
      "󐡐": 9301,
      "󓚼": 9302,
      "󡣊": 9303,
      "󣬕": 9304,
      "󰦱": 9305,
      "󼯈": 9306,
      "󼯔": 9307,
      "􄿂": 9308,
      "th": 9309,
      "on": 9310,
      "in": 9311,
      "the": 9312,
      "an": 9313,
      "re": 9314,
      "at": 9315,
      "en": 9316,
      "er": 9317,
      "ion": 9318,
      "or": 9319,
      "al": 9320,
      "of": 9321,
      "es": 9322,
      "it": 9323,
      "ed": 9324,
      "ou": 9325,
      "and": 9326,
      "is": 9327,
      "to": 9328,
      "ar": 9329,
      "ing": 9330,
      "ent": 9331,
      "ation": 9332,
      "ic": 9333,
      "as": 9334,
      "om": 9335,
      "ec": 9336,
      "st": 9337,
      "le": 9338,
      "ve": 9339,
      "ro": 9340,
      "for": 9341,
      "ac": 9342,
      "he": 9343,
      "il": 9344,
      "ment": 9345,
      "00": 9346,
      "de": 9347,
      "se": 9348,
      "be": 9349,
      "res": 9350,
      "im": 9351,
      "ol": 9352,
      "pro": 9353,
      "con": 9354,
      "ra": 9355,
      "ter": 9356,
      "su": 9357,
      "200": 9358,
      "that": 9359,
      "ig": 9360,
      "ce": 9361,
      "ly": 9362,
      "lo": 9363,
      "tion": 9364,
      "ad": 9365,
      "me": 9366,
      "un": 9367,
      "ur": 9368,
      "ts": 9369,
      "no": 9370,
      "ies": 9371,
      "te": 9372,
      "you": 9373,
      "id": 9374,
      "The": 9375,
      "ver": 9376,
      "ab": 9377,
      "com": 9378,
      "tr": 9379,
      "ir": 9380,
      "ith": 9381,
      "we": 9382,
      "ag": 9383,
      "ations": 9384,
      "ch": 9385,
      "ul": 9386,
      "ate": 9387,
      "with": 9388,
      "..": 9389,
      "oun": 9390,
      "per": 9391,
      "ld": 9392,
      "ity": 9393,
      "are": 9394,
      "por": 9395,
      "wh": 9396,
      "et": 9397,
      "ess": 9398,
      "igh": 9399,
      "par": 9400,
      "ay": 9401,
      "ex": 9402,
      "by": 9403,
      "ive": 9404,
      "ial": 9405,
      "all": 9406,
      "ap": 9407,
      "if": 9408,
      "mb": 9409,
      "iv": 9410,
      "po": 9411,
      "man": 9412,
      "port": 9413,
      "sh": 9414,
      "ational": 9415,
      "ect": 9416,
      "In": 9417,
      "end": 9418,
      "ain": 9419,
      "so": 9420,
      "qu": 9421,
      "ther": 9422,
      "ha": 9423,
      "us": 9424,
      "19": 9425,
      "go": 9426,
      "ke": 9427,
      "ill": 9428,
      "fr": 9429,
      "pr": 9430,
      "pl": 9431,
      "ould": 9432,
      "ut": 9433,
      "am": 9434,
      "iz": 9435,
      "our": 9436,
      "est": 9437,
      "Un": 9438,
      "ll": 9439,
      "ne": 9440,
      "national": 9441,
      "Com": 9442,
      "its": 9443,
      "uc": 9444,
      "op": 9445,
      "国家": 9446,
      "委员": 9447,
      "ren": 9448,
      "was": 9449,
      "会议": 9450,
      "ff": 9451,
      "not": 9452,
      "委员会": 9453,
      "part": 9454,
      "ie": 9455,
      "ited": 9456,
      "mo": 9457,
      "ary": 9458,
      "mit": 9459,
      "ud": 9460,
      "St": 9461,
      "ant": 9462,
      "我们": 9463,
      "inc": 9464,
      "wor": 9465,
      "der": 9466,
      "ib": 9467,
      "pe": 9468,
      "out": 9469,
      "联合": 9470,
      "act": 9471,
      "ist": 9472,
      "od": 9473,
      "问题": 9474,
      "ance": 9475,
      "do": 9476,
      "ust": 9477,
      "ution": 9478,
      "mber": 9479,
      "...": 9480,
      "United": 9481,
      "have": 9482,
      "lop": 9483,
      "em": 9484,
      "velop": 9485,
      "co": 9486,
      "国际": 9487,
      "coun": 9488,
      "ia": 9489,
      "this": 9490,
      "eral": 9491,
      "工作": 9492,
      "inter": 9493,
      "el": 9494,
      "from": 9495,
      "sion": 9496,
      "联合国": 9497,
      "red": 9498,
      "ated": 9499,
      "ma": 9500,
      "ple": 9501,
      "form": 9502,
      "ates": 9503,
      "reg": 9504,
      "ard": 9505,
      "报告": 9506,
      "ight": 9507,
      "Con": 9508,
      "Th": 9509,
      "Nations": 9510,
      "ge": 9511,
      "prov": 9512,
      "up": 9513,
      "pres": 9514,
      "one": 9515,
      "发展": 9516,
      "ments": 9517,
      "has": 9518,
      "Re": 9519,
      "work": 9520,
      "ich": 9521,
      "199": 9522,
      "eneral": 9523,
      "dis": 9524,
      "develop": 9525,
      "ities": 9526,
      "sp": 9527,
      "fe": 9528,
      "over": 9529,
      "ice": 9530,
      "pre": 9531,
      "组织": 9532,
      "able": 9533,
      "ical": 9534,
      "comm": 9535,
      "ta": 9536,
      "rou": 9537,
      "Sec": 9538,
      "ip": 9539,
      "一个": 9540,
      "which": 9541,
      "10": 9542,
      "their": 9543,
      "ace": 9544,
      "cr": 9545,
      "now": 9546,
      "gh": 9547,
      "gra": 9548,
      "pos": 9549,
      "bl": 9550,
      "tee": 9551,
      "will": 9552,
      "ide": 9553,
      "ted": 9554,
      "countr": 9555,
      "ish": 9556,
      "ind": 9557,
      "other": 9558,
      "ass": 9559,
      "cont": 9560,
      "As": 9561,
      "vent": 9562,
      "la": 9563,
      "General": 9564,
      "mittee": 9565,
      "ure": 9566,
      "It": 9567,
      "uman": 9568,
      "ow": 9569,
      "关于": 9570,
      "ers": 9571,
      "ission": 9572,
      "ans": 9573,
      "ition": 9574,
      "政府": 9575,
      "ret": 9576,
      "ous": 9577,
      "under": 9578,
      "um": 9579,
      "king": 9580,
      "You": 9581,
      "提供": 9582,
      "We": 9583,
      "ights": 9584,
      "Committee": 9585,
      "Wh": 9586,
      "States": 9587,
      "方面": 9588,
      "sec": 9589,
      "12": 9590,
      "ome": 9591,
      "ord": 9592,
      "international": 9593,
      "str": 9594,
      "art": 9595,
      "olution": 9596,
      "gan": 9597,
      "fo": 9598,
      "以及": 9599,
      "been": 9600,
      "ach": 9601,
      "No": 9602,
      "age": 9603,
      "here": 9604,
      "这些": 9605,
      "Coun": 9606,
      "ence": 9607,
      "incl": 9608,
      "ision": 9609,
      "anc": 9610,
      "had": 9611,
      "ons": 9612,
      "决议": 9613,
      "社会": 9614,
      "enc": 9615,
      "low": 9616,
      "min": 9617,
      "An": 9618,
      "gram": 9619,
      "cil": 9620,
      "其他": 9621,
      "plement": 9622,
      "他们": 9623,
      "report": 9624,
      "ild": 9625,
      "li": 9626,
      "ser": 9627,
      "行动": 9628,
      "ganiz": 9629,
      "also": 9630,
      "He": 9631,
      "would": 9632,
      "pu": 9633,
      "should": 9634,
      "代表": 9635,
      "特别": 9636,
      "sub": 9637,
      "leg": 9638,
      "ong": 9639,
      "情况": 9640,
      "通过": 9641,
      "执行": 9642,
      "ear": 9643,
      "can": 9644,
      "安全": 9645,
      "ative": 9646,
      "oper": 9647,
      "sup": 9648,
      "cess": 9649,
      "ian": 9650,
      "resolution": 9651,
      "mission": 9652,
      "were": 9653,
      "包括": 9654,
      "Council": 9655,
      "有关": 9656,
      "pol": 9657,
      "present": 9658,
      "机构": 9659,
      "sa": 9660,
      "进行": 9661,
      "resp": 9662,
      "UN": 9663,
      "ign": 9664,
      "my": 9665,
      "De": 9666,
      "ime": 9667,
      "urity": 9668,
      "方案": 9669,
      "秘书": 9670,
      "au": 9671,
      "cons": 9672,
      "tra": 9673,
      "there": 9674,
      "ult": 9675,
      "reat": 9676,
      "rel": 9677,
      "ful": 9678,
      "gu": 9679,
      "dec": 9680,
      "ty": 9681,
      "什么": 9682,
      "requ": 9683,
      "partic": 9684,
      "blic": 9685,
      "vention": 9686,
      "rec": 9687,
      "know": 9688,
      "11": 9689,
      "get": 9690,
      "ree": 9691,
      "human": 9692,
      "fin": 9693,
      "Pro": 9694,
      "nment": 9695,
      "feren": 9696,
      "ph": 9697,
      "没有": 9698,
      "所有": 9699,
      "公约": 9700,
      "ress": 9701,
      "your": 9702,
      "countries": 9703,
      "15": 9704,
      "人权": 9705,
      "conc": 9706,
      "ast": 9707,
      "ep": 9708,
      "ase": 9709,
      "ession": 9710,
      "omen": 9711,
      "includ": 9712,
      "20": 9713,
      "经济": 9714,
      "any": 9715,
      "development": 9716,
      "ech": 9717,
      "public": 9718,
      "oc": 9719,
      "implement": 9720,
      "need": 9721,
      "理事": 9722,
      "they": 9723,
      "ose": 9724,
      "ecial": 9725,
      "Ad": 9726,
      "off": 9727,
      "妇女": 9728,
      "Ch": 9729,
      "大会": 9730,
      "rights": 9731,
      "ob": 9732,
      "),": 9733,
      "ific": 9734,
      "ack": 9735,
      "Secret": 9736,
      "理事会": 9737,
      "inform": 9738,
      "合作": 9739,
      "活动": 9740,
      "ok": 9741,
      "vie": 9742,
      "program": 9743,
      "meet": 9744,
      "add": 9745,
      "ine": 9746,
      "建议": 9747,
      "Gover": 9748,
      "Inter": 9749,
      "view": 9750,
      "ual": 9751,
      "tions": 9752,
      "ning": 9753,
      "duc": 9754,
      "some": 9755,
      "ident": 9756,
      "support": 9757,
      "soc": 9758,
      "ures": 9759,
      "gr": 9760,
      "very": 9761,
      "int": 9762,
      "ms": 9763,
      "sy": 9764,
      "more": 9765,
      "just": 9766,
      "ven": 9767,
      "them": 9768,
      "organiz": 9769,
      "right": 9770,
      "thing": 9771,
      "2001": 9772,
      "需要": 9773,
      "项目": 9774,
      "session": 9775,
      "这一": 9776,
      "2005": 9777,
      "roup": 9778,
      "such": 9779,
      "ue": 9780,
      "缔约": 9781,
      "ility": 9782,
      "ular": 9783,
      "人员": 9784,
      "ors": 9785,
      "und": 9786,
      "way": 9787,
      "who": 9788,
      "ces": 9789,
      "pers": 9790,
      "don": 9791,
      "semb": 9792,
      "13": 9793,
      "fore": 9794,
      "规定": 9795,
      "ef": 9796,
      "决定": 9797,
      "ating": 9798,
      "2002": 9799,
      "inv": 9800,
      "rough": 9801,
      "sembly": 9802,
      "bet": 9803,
      "可能": 9804,
      "ory": 9805,
      "ound": 9806,
      "ft": 9807,
      "2000": 9808,
      "ied": 9809,
      "根据": 9810,
      "region": 9811,
      "abl": 9812,
      "Assembly": 9813,
      "vi": 9814,
      "和平": 9815,
      "可以": 9816,
      "including": 9817,
      "aff": 9818,
      "Commission": 9819,
      "采取": 9820,
      "again": 9821,
      "stit": 9822,
      "stem": 9823,
      "women": 9824,
      "year": 9825,
      "区域": 9826,
      "ices": 9827,
      "like": 9828,
      "but": 9829,
      "imin": 9830,
      ").": 9831,
      "what": 9832,
      "2004": 9833,
      "儿童": 9834,
      "提出": 9835,
      "contin": 9836,
      "serv": 9837,
      "issu": 9838,
      "eff": 9839,
      "dra": 9840,
      "必须": 9841,
      "14": 9842,
      "meeting": 9843,
      "主义": 9844,
      "about": 9845,
      "cent": 9846,
      "2003": 9847,
      "omic": 9848,
      "ting": 9849,
      "law": 9850,
      "med": 9851,
      "Dec": 9852,
      "fl": 9853,
      "State": 9854,
      "av": 9855,
      "ective": 9856,
      "知道": 9857,
      "计划": 9858,
      "What": 9859,
      "bo": 9860,
      "see": 9861,
      "2006": 9862,
      "ection": 9863,
      "those": 9864,
      "Secretary": 9865,
      "权利": 9866,
      "new": 9867,
      "措施": 9868,
      "秘书长": 9869,
      "先生": 9870,
      "ives": 9871,
      "ference": 9872,
      "system": 9873,
      "bas": 9874,
      "ah": 9875,
      "his": 9876,
      "世界": 9877,
      "member": 9878,
      "ens": 9879,
      "And": 9880,
      "time": 9881,
      "vel": 9882,
      "into": 9883,
      "Convention": 9884,
      "information": 9885,
      "ember": 9886,
      "法律": 9887,
      "main": 9888,
      "ond": 9889,
      "made": 9890,
      "重要": 9891,
      "Mr": 9892,
      "30": 9893,
      "成员": 9894,
      "号决议": 9895,
      "支持": 9896,
      "contr": 9897,
      "ablish": 9898,
      "18": 9899,
      "use": 9900,
      "技术": 9901,
      "concer": 9902,
      "16": 9903,
      "gy": 9904,
      "operation": 9905,
      "管理": 9906,
      "ari": 9907,
      "International": 9908,
      "ople": 9909,
      "activ": 9910,
      "through": 9911,
      "econ": 9912,
      "arr": 9913,
      "well": 9914,
      "mon": 9915,
      "ict": 9916,
      "lear": 9917,
      "na": 9918,
      "继续": 9919,
      "child": 9920,
      "comp": 9921,
      "cus": 9922,
      "认为": 9923,
      "establish": 9924,
      "ire": 9925,
      "commun": 9926,
      "commend": 9927,
      "Is": 9928,
      "主席": 9929,
      "tw": 9930,
      "努力": 9931,
      "implementation": 9932,
      "ally": 9933,
      "lar": 9934,
      "ak": 9935,
      "17": 9936,
      "Ac": 9937,
      "不是": 9938,
      "peace": 9939,
      "come": 9940,
      "exp": 9941,
      "ile": 9942,
      "sure": 9943,
      "than": 9944,
      "2007": 9945,
      "ible": 9946,
      "icle": 9947,
      "届会议": 9948,
      "col": 9949,
      "Government": 9950,
      "sel": 9951,
      "got": 9952,
      "echn": 9953,
      "如果": 9954,
      "This": 9955,
      "ollow": 9956,
      "trans": 9957,
      "provid": 9958,
      "保护": 9959,
      "against": 9960,
      "istr": 9961,
      "要求": 9962,
      "inte": 9963,
      "her": 9964,
      "任何": 9965,
      "particular": 9966,
      "pri": 9967,
      "take": 9968,
      "提交": 9969,
      "him": 9970,
      "gover": 9971,
      "ink": 9972,
      "ject": 9973,
      "fir": 9974,
      "25": 9975,
      "recommend": 9976,
      "prom": 9977,
      "ru": 9978,
      "注意": 9979,
      "Sp": 9980,
      "appro": 9981,
      "加强": 9982,
      "sit": 9983,
      "ween": 9984,
      "vis": 9985,
      "基金": 9986,
      "的人": 9987,
      "level": 9988,
      "Wor": 9989,
      "ider": 9990,
      "peri": 9991,
      "could": 9992,
      "促进": 9993,
      "草案": 9994,
      "import": 9995,
      "agra": 9996,
      "ner": 9997,
      "land": 9998,
      "effor": 9999,
      "stand": 10000,
      "政策": 10001,
      "agraph": 10002,
      "adop": 10003,
      "和国": 10004,
      "assist": 10005,
      "行为": 10006,
      "ges": 10007,
      "bal": 10008,
      "meas": 10009,
      "影响": 10010,
      "between": 10011,
      "day": 10012,
      "资源": 10013,
      "activities": 10014,
      "我的": 10015,
      "di": 10016,
      "For": 10017,
      "des": 10018,
      "tain": 10019,
      "order": 10020,
      "的一": 10021,
      "系统": 10022,
      "people": 10023,
      "air": 10024,
      "mat": 10025,
      "did": 10026,
      "sc": 10027,
      "Security": 10028,
      "may": 10029,
      "fric": 10030,
      "缔约国": 10031,
      "Afric": 10032,
      "共和国": 10033,
      "ism": 10034,
      "这个": 10035,
      "follow": 10036,
      "ources": 10037,
      "援助": 10038,
      "draft": 10039,
      "stitution": 10040,
      "rit": 10041,
      "2008": 10042,
      "Republic": 10043,
      "cap": 10044,
      "已经": 10045,
      "acc": 10046,
      "set": 10047,
      "目标": 10048,
      "security": 10049,
      "process": 10050,
      "That": 10051,
      "reas": 10052,
      "mar": 10053,
      "因为": 10054,
      "financ": 10055,
      "aw": 10056,
      "these": 10057,
      "paragraph": 10058,
      "ise": 10059,
      "ange": 10060,
      "represent": 10061,
      "确保": 10062,
      "ann": 10063,
      "23": 10064,
      "polic": 10065,
      "II": 10066,
      "country": 10067,
      "regard": 10068,
      "att": 10069,
      "文件": 10070,
      "这种": 10071,
      "only": 10072,
      "ural": 10073,
      "美元": 10074,
      "ail": 10075,
      "techn": 10076,
      "bu": 10077,
      "consider": 10078,
      "olo": 10079,
      "Co": 10080,
      "urther": 10081,
      "ough": 10082,
      "武器": 10083,
      "Develop": 10084,
      "建立": 10085,
      "Ar": 10086,
      "itical": 10087,
      "loc": 10088,
      "decision": 10089,
      "ship": 10090,
      "ilit": 10091,
      "斯坦": 10092,
      "alth": 10093,
      "环境": 10094,
      "where": 10095,
      "ks": 10096,
      "服务": 10097,
      "现在": 10098,
      "thor": 10099,
      "的报告": 10100,
      "efforts": 10101,
      "organizations": 10102,
      "Or": 10103,
      "measures": 10104,
      "能力": 10105,
      "Al": 10106,
      "prot": 10107,
      "als": 10108,
      "作为": 10109,
      "审议": 10110,
      "af": 10111,
      "uation": 10112,
      "two": 10113,
      "nu": 10114,
      "ters": 10115,
      "部分": 10116,
      "Ex": 10117,
      "ects": 10118,
      "22": 10119,
      "mer": 10120,
      "ext": 10121,
      "举行": 10122,
      "cooperation": 10123,
      "Off": 10124,
      "rest": 10125,
      "Part": 10126,
      "ized": 10127,
      "call": 10128,
      "各国": 10129,
      "非洲": 10130,
      "信息": 10131,
      "tak": 10132,
      "你的": 10133,
      "ev": 10134,
      "vers": 10135,
      "教育": 10136,
      "ency": 10137,
      "when": 10138,
      "cu": 10139,
      "ected": 10140,
      "concern": 10141,
      "协调": 10142,
      "programme": 10143,
      "then": 10144,
      "uring": 10145,
      "provision": 10146,
      "regional": 10147,
      "作出": 10148,
      "want": 10149,
      "must": 10150,
      "Conference": 10151,
      "led": 10152,
      "economic": 10153,
      "24": 10154,
      "soci": 10155,
      "viol": 10156,
      "cur": 10157,
      "bec": 10158,
      "wn": 10159,
      "first": 10160,
      "安全理事会": 10161,
      "全球": 10162,
      "fac": 10163,
      "ble": 10164,
      "政治": 10165,
      "ced": 10166,
      "tal": 10167,
      "26": 10168,
      "Add": 10169,
      "particip": 10170,
      "rele": 10171,
      "解决": 10172,
      "因此": 10173,
      "good": 10174,
      "审查": 10175,
      "实现": 10176,
      "promo": 10177,
      "crimin": 10178,
      "考虑": 10179,
      "之间": 10180,
      "ization": 10181,
      "ry": 10182,
      "发言": 10183,
      "ards": 10184,
      "All": 10185,
      "这是": 10186,
      "主要": 10187,
      "equ": 10188,
      "contrib": 10189,
      "部门": 10190,
      "fund": 10191,
      "使用": 10192,
      "这样": 10193,
      "number": 10194,
      "第二": 10195,
      "ques": 10196,
      "ho": 10197,
      "你们": 10198,
      "resources": 10199,
      "old": 10200,
      "most": 10201,
      "high": 10202,
      "参与": 10203,
      "children": 10204,
      "non": 10205,
      "vir": 10206,
      "Human": 10207,
      "人民": 10208,
      "事务": 10209,
      "Development": 10210,
      "一些": 10211,
      "有效": 10212,
      "make": 10213,
      "1999": 10214,
      "address": 10215,
      "vant": 10216,
      "pur": 10217,
      "Rights": 10218,
      "的工作": 10219,
      "ix": 10220,
      "Ne": 10221,
      "resident": 10222,
      "ability": 10223,
      "得到": 10224,
      "关系": 10225,
      "But": 10226,
      "group": 10227,
      "agement": 10228,
      "研究": 10229,
      "ys": 10230,
      "enda": 10231,
      "ute": 10232,
      "shall": 10233,
      "propos": 10234,
      "dep": 10235,
      "的是": 10236,
      "bod": 10237,
      "地区": 10238,
      "vo": 10239,
      "government": 10240,
      "讨论": 10241,
      "ordin": 10242,
      "27": 10243,
      "cl": 10244,
      "sur": 10245,
      "person": 10246,
      "iti": 10247,
      "28": 10248,
      "ause": 10249,
      "she": 10250,
      "ivil": 10251,
      "战略": 10252,
      "Le": 10253,
      "领域": 10254,
      "assistance": 10255,
      "小组": 10256,
      "Bo": 10257,
      "taken": 10258,
      "lobal": 10259,
      "dif": 10260,
      "ang": 10261,
      "pt": 10262,
      "在这": 10263,
      "期间": 10264,
      "financial": 10265,
      "years": 10266,
      "author": 10267,
      "ror": 10268,
      "21": 10269,
      "议程": 10270,
      "000": 10271,
      "read": 10272,
      "commit": 10273,
      "br": 10274,
      "Group": 10275,
      "bel": 10276,
      "plic": 10277,
      "注意到": 10278,
      "第5": 10279,
      "emp": 10280,
      "accord": 10281,
      "app": 10282,
      "onment": 10283,
      "further": 10284,
      "ports": 10285,
      "back": 10286,
      "uro": 10287,
      "mes": 10288,
      "ium": 10289,
      "持续": 10290,
      "provide": 10291,
      "代表团": 10292,
      "plan": 10293,
      "其中": 10294,
      "special": 10295,
      "educ": 10296,
      "period": 10297,
      "members": 10298,
      "Special": 10299,
      "article": 10300,
      "issues": 10301,
      "）。": 10302,
      "特别是": 10303,
      "reng": 10304,
      "respons": 10305,
      "ten": 10306,
      "ince": 10307,
      "going": 10308,
      "ub": 10309,
      "人的": 10310,
      "作用": 10311,
      "action": 10312,
      "world": 10313,
      "state": 10314,
      "social": 10315,
      "sign": 10316,
      "29": 10317,
      "many": 10318,
      "ieve": 10319,
      "being": 10320,
      "Min": 10321,
      "They": 10322,
      "表示": 10323,
      "ving": 10324,
      "ank": 10325,
      "ensure": 10326,
      "President": 10327,
      "但是": 10328,
      "ples": 10329,
      "ient": 10330,
      "指出": 10331,
      "恐怖": 10332,
      "At": 10333,
      "方面的": 10334,
      "开展": 10335,
      "press": 10336,
      "预算": 10337,
      "effective": 10338,
      "Ag": 10339,
      "poss": 10340,
      "continu": 10341,
      "冲突": 10342,
      "就是": 10343,
      "item": 10344,
      "mand": 10345,
      "loy": 10346,
      "lif": 10347,
      "docu": 10348,
      "ina": 10349,
      "hel": 10350,
      "60": 10351,
      "自己": 10352,
      "arch": 10353,
      "增加": 10354,
      "think": 10355,
      "review": 10356,
      "vironment": 10357,
      "There": 10358,
      "实施": 10359,
      "ref": 10360,
      "不能": 10361,
      "build": 10362,
      "legal": 10363,
      "31": 10364,
      "accoun": 10365,
      "ining": 10366,
      "贸易": 10367,
      "ss": 10368,
      "developing": 10369,
      "said": 10370,
      "Oh": 10371,
      "——": 10372,
      "tle": 10373,
      "icial": 10374,
      "ved": 10375,
      "ants": 10376,
      "rect": 10377,
      "row": 10378,
      "place": 10379,
      "Euro": 10380,
      "条约": 10381,
      "rent": 10382,
      "atives": 10383,
      "程序": 10384,
      "ite": 10385,
      "第一": 10386,
      "怎么": 10387,
      "streng": 10388,
      "within": 10389,
      "relevant": 10390,
      "ily": 10391,
      "必要": 10392,
      "To": 10393,
      "gress": 10394,
      "它们": 10395,
      "udget": 10396,
      "ore": 10397,
      "意见": 10398,
      "获得": 10399,
      "ious": 10400,
      "request": 10401,
      "发展中": 10402,
      "struc": 10403,
      "let": 10404,
      "Tr": 10405,
      "ety": 10406,
      "So": 10407,
      "12月": 10408,
      "法院": 10409,
      "50": 10410,
      "Organiz": 10411,
      "self": 10412,
      "Europe": 10413,
      "En": 10414,
      "Pe": 10415,
      "犯罪": 10416,
      "一步": 10417,
      "iven": 10418,
      "欧洲": 10419,
      "how": 10420,
      "相关": 10421,
      "produc": 10422,
      "keep": 10423,
      "programmes": 10424,
      "强调": 10425,
      "reed": 10426,
      "December": 10427,
      "尼亚": 10428,
      "能够": 10429,
      "的问题": 10430,
      "Office": 10431,
      "say": 10432,
      "political": 10433,
      "资料": 10434,
      "应该": 10435,
      "取得": 10436,
      "adopted": 10437,
      "特派": 10438,
      "services": 10439,
      "IC": 10440,
      "pract": 10441,
      "正在": 10442,
      "支助": 10443,
      "dition": 10444,
      "ministr": 10445,
      "institution": 10446,
      "秘书处": 10447,
      "before": 10448,
      "任务": 10449,
      "confl": 10450,
      "Member": 10451,
      "以便": 10452,
      "处理": 10453,
      "Go": 10454,
      "中的": 10455,
      "provided": 10456,
      "every": 10457,
      "jo": 10458,
      "strate": 10459,
      "的情况": 10460,
      "spec": 10461,
      "party": 10462,
      "进程": 10463,
      "而且": 10464,
      "特派团": 10465,
      "illion": 10466,
      "consu": 10467,
      "原则": 10468,
      "确定": 10469,
      "deleg": 10470,
      "after": 10471,
      "imp": 10472,
      "基础": 10473,
      "ude": 10474,
      "参加": 10475,
      "capac": 10476,
      "less": 10477,
      "related": 10478,
      "进一步": 10479,
      "美国": 10480,
      "ariat": 10481,
      "civil": 10482,
      "ater": 10483,
      "的国家": 10484,
      "held": 10485,
      "ness": 10486,
      "addition": 10487,
      "terror": 10488,
      "ention": 10489,
      "tex": 10490,
      "cour": 10491,
      "Se": 10492,
      "发展中国家": 10493,
      "希望": 10494,
      "community": 10495,
      "cho": 10496,
      "health": 10497,
      "situation": 10498,
      "ality": 10499,
      "areas": 10500,
      "uch": 10501,
      "开始": 10502,
      "respect": 10503,
      "atic": 10504,
      "important": 10505,
      "问题的": 10506,
      "agree": 10507,
      "Program": 10508,
      "责任": 10509,
      "fact": 10510,
      "pa": 10511,
      "continue": 10512,
      "Cha": 10513,
      "Pr": 10514,
      "parties": 10515,
      "nec": 10516,
      "办法": 10517,
      "ines": 10518,
      "目前": 10519,
      "时间": 10520,
      "ibility": 10521,
      "based": 10522,
      "cas": 10523,
      "ort": 10524,
      "40": 10525,
      "及其": 10526,
      "access": 10527,
      "ize": 10528,
      "民主": 10529,
      "long": 10530,
      "利亚": 10531,
      "一项": 10532,
      "共同": 10533,
      "sect": 10534,
      "ulation": 10535,
      "调查": 10536,
      "行政": 10537,
      "uclear": 10538,
      "中心": 10539,
      "treat": 10540,
      "enn": 10541,
      "年12月": 10542,
      "198": 10543,
      "down": 10544,
      "invest": 10545,
      "ings": 10546,
      "eah": 10547,
      "联盟": 10548,
      "great": 10549,
      "staff": 10550,
      "put": 10551,
      "dom": 10552,
      "reco": 10553,
      "oura": 10554,
      "during": 10555,
      "和其他": 10556,
      "urn": 10557,
      "我不": 10558,
      "fra": 10559,
      "management": 10560,
      "both": 10561,
      "used": 10562,
      "发生": 10563,
      "Pal": 10564,
      "global": 10565,
      "among": 10566,
      "专家": 10567,
      "ww": 10568,
      "help": 10569,
      "提高": 10570,
      "lt": 10571,
      "第三": 10572,
      "充分": 10573,
      "的各": 10574,
      "necess": 10575,
      "歧视": 10576,
      "budget": 10577,
      "ral": 10578,
      "ender": 10579,
      "工作组": 10580,
      "Rec": 10581,
      "ared": 10582,
      "rol": 10583,
      "巴勒": 10584,
      "机制": 10585,
      "说明": 10586,
      "inci": 10587,
      "Programme": 10588,
      "text": 10589,
      "lead": 10590,
      "clo": 10591,
      "integr": 10592,
      "CO": 10593,
      "policy": 10594,
      "巴勒斯坦": 10595,
      "erv": 10596,
      "55": 10597,
      "persons": 10598,
      "ban": 10599,
      "方式": 10600,
      "由于": 10601,
      "gn": 10602,
      "tern": 10603,
      "暴力": 10604,
      "proble": 10605,
      "agenda": 10606,
      "同时": 10607,
      "appropri": 10608,
      "protection": 10609,
      "Africa": 10610,
      "Organization": 10611,
      "ilities": 10612,
      "submit": 10613,
      "附件": 10614,
      "accordance": 10615,
      "伙伴": 10616,
      "increas": 10617,
      "培训": 10618,
      "利用": 10619,
      "ID": 10620,
      "机会": 10621,
      "arian": 10622,
      "education": 10623,
      "On": 10624,
      "许多": 10625,
      "force": 10626,
      "框架": 10627,
      "ister": 10628,
      "del": 10629,
      "discus": 10630,
      "次会议": 10631,
      "She": 10632,
      "role": 10633,
      "部队": 10634,
      "progress": 10635,
      "滋病": 10636,
      "men": 10637,
      "安理": 10638,
      "ick": 10639,
      "恐怖主义": 10640,
      "制定": 10641,
      "自由": 10642,
      "以色": 10643,
      "以色列": 10644,
      "ired": 10645,
      "same": 10646,
      "艾滋病": 10647,
      "会员": 10648,
      "ield": 10649,
      "ave": 10650,
      "val": 10651,
      "remain": 10652,
      "办事": 10653,
      "cor": 10654,
      "World": 10655,
      "If": 10656,
      "标准": 10657,
      "制度": 10658,
      "own": 10659,
      "Palest": 10660,
      "following": 10661,
      "une": 10662,
      "building": 10663,
      "ification": 10664,
      "account": 10665,
      "欢迎": 10666,
      "2005年": 10667,
      "第五": 10668,
      "itor": 10669,
      "depend": 10670,
      "家庭": 10671,
      "mocr": 10672,
      "决议草案": 10673,
      "Soc": 10674,
      "司法": 10675,
      "文化": 10676,
      "working": 10677,
      "exam": 10678,
      "does": 10679,
      "rece": 10680,
      "contain": 10681,
      "May": 10682,
      "capacity": 10683,
      "人口": 10684,
      "全面": 10685,
      "wever": 10686,
      "安理会": 10687,
      "ief": 10688,
      "full": 10689,
      "办事处": 10690,
      "维持": 10691,
      "ber": 10692,
      "会员国": 10693,
      "ird": 10694,
      "平等": 10695,
      "为了": 10696,
      "current": 10697,
      "general": 10698,
      "ying": 10699,
      "具体": 10700,
      "ims": 10701,
      "fam": 10702,
      "possible": 10703,
      "评估": 10704,
      "cre": 10705,
      "change": 10706,
      "适当": 10707,
      "prior": 10708,
      "ified": 10709,
      "范围": 10710,
      "ade": 10711,
      "ug": 10712,
      "减少": 10713,
      "ffic": 10714,
      "stain": 10715,
      "mework": 10716,
      "Gu": 10717,
      "新的": 10718,
      "阿拉": 10719,
      "environment": 10720,
      "coordin": 10721,
      "地方": 10722,
      "stat": 10723,
      "难民": 10724,
      "2009": 10725,
      "Amer": 10726,
      "three": 10727,
      "established": 10728,
      "require": 10729,
      "协定": 10730,
      "Econ": 10731,
      "可持续": 10732,
      "recommendations": 10733,
      "议定": 10734,
      "57": 10735,
      "ential": 10736,
      "bi": 10737,
      "数据": 10738,
      "建设": 10739,
      "appropriate": 10740,
      "Americ": 10741,
      "jud": 10742,
      "最后": 10743,
      "second": 10744,
      "unc": 10745,
      "without": 10746,
      "用于": 10747,
      "消除": 10748,
      "正式": 10749,
      "assess": 10750,
      ");": 10751,
      "承诺": 10752,
      "ca": 10753,
      "cla": 10754,
      "look": 10755,
      "rael": 10756,
      "缔约方": 10757,
      "proced": 10758,
      "义务": 10759,
      "wel": 10760,
      "Israel": 10761,
      "million": 10762,
      "按照": 10763,
      "条件": 10764,
      "是否": 10765,
      "高级": 10766,
      "New": 10767,
      "sustain": 10768,
      "应当": 10769,
      "人道": 10770,
      "conflict": 10771,
      "case": 10772,
      "生活": 10773,
      "training": 10774,
      "cost": 10775,
      "进展": 10776,
      "Well": 10777,
      "咨询": 10778,
      "开发": 10779,
      "Parties": 10780,
      "weap": 10781,
      "ivers": 10782,
      "My": 10783,
      "top": 10784,
      "governmental": 10785,
      "ask": 10786,
      "icult": 10787,
      "since": 10788,
      "第3": 10789,
      "necessary": 10790,
      "post": 10791,
      "Economic": 10792,
      "严重": 10793,
      "基本": 10794,
      "Fr": 10795,
      "gon": 10796,
      "hal": 10797,
      "议定书": 10798,
      "care": 10799,
      "ese": 10800,
      "indic": 10801,
      "2002年": 10802,
      "itarian": 10803,
      "eration": 10804,
      "reports": 10805,
      "coll": 10806,
      "princi": 10807,
      "1998": 10808,
      "document": 10809,
      "even": 10810,
      "initi": 10811,
      "avail": 10812,
      "kill": 10813,
      "存在": 10814,
      "express": 10815,
      "eng": 10816,
      "real": 10817,
      "Mo": 10818,
      "iss": 10819,
      "uly": 10820,
      "他的": 10821,
      "Yeah": 10822,
      "CN": 10823,
      "consult": 10824,
      "echan": 10825,
      "Res": 10826,
      "nuclear": 10827,
      "造成": 10828,
      "6月": 10829,
      "2000年": 10830,
      "2001年": 10831,
      "阿拉伯": 10832,
      "58": 10833,
      "Chair": 10834,
      "--": 10835,
      "59": 10836,
      "olog": 10837,
      "head": 10838,
      "rab": 10839,
      "63": 10840,
      "ended": 10841,
      "ot": 10842,
      "find": 10843,
      "wa": 10844,
      "les": 10845,
      "How": 10846,
      "ensive": 10847,
      "invol": 10848,
      "工作人员": 10849,
      "because": 10850,
      "interest": 10851,
      "方法": 10852,
      "six": 10853,
      "comple": 10854,
      "公司": 10855,
      "outh": 10856,
      "不同": 10857,
      "认识": 10858,
      "鼓励": 10859,
      "Social": 10860,
      "gonna": 10861,
      "give": 10862,
      "obl": 10863,
      "while": 10864,
      "upon": 10865,
      "56": 10866,
      "African": 10867,
      ")。": 10868,
      "设立": 10869,
      "接受": 10870,
      "ben": 10871,
      "life": 10872,
      "Pol": 10873,
      "oblig": 10874,
      "June": 10875,
      "领土": 10876,
      "ennium": 10877,
      "Do": 10878,
      "wer": 10879,
      "jor": 10880,
      "ology": 10881,
      "bro": 10882,
      "尤其": 10883,
      "成为": 10884,
      "规则": 10885,
      "laration": 10886,
      "mun": 10887,
      "第4": 10888,
      "Let": 10889,
      "cer": 10890,
      "iving": 10891,
      "ances": 10892,
      "crimination": 10893,
      "负责": 10894,
      "ics": 10895,
      "concl": 10896,
      "technical": 10897,
      "伊斯": 10898,
      "imate": 10899,
      "exist": 10900,
      "2003年": 10901,
      "ris": 10902,
      "airs": 10903,
      "dat": 10904,
      "each": 10905,
      "though": 10906,
      "协助": 10907,
      "carr": 10908,
      "lan": 10909,
      "ready": 10910,
      "European": 10911,
      "employ": 10912,
      "gender": 10913,
      "violence": 10914,
      "pop": 10915,
      "last": 10916,
      "ules": 10917,
      "still": 10918,
      "unt": 10919,
      "不会": 10920,
      "Per": 10921,
      "结果": 10922,
      "拉克": 10923,
      "62": 10924,
      "isl": 10925,
      "mechan": 10926,
      "provisions": 10927,
      "对于": 10928,
      "ves": 10929,
      "rease": 10930,
      "enh": 10931,
      "applic": 10932,
      "个人": 10933,
      "宣言": 10934,
      "日至": 10935,
      "到了": 10936,
      "此外": 10937,
      "的事": 10938,
      "too": 10939,
      "imes": 10940,
      "field": 10941,
      "国际社会": 10942,
      "资金": 10943,
      "伊斯兰": 10944,
      "tocol": 10945,
      "priv": 10946,
      "Fin": 10947,
      "recogn": 10948,
      "那些": 10949,
      "basis": 10950,
      "做法": 10951,
      "只是": 10952,
      "approach": 10953,
      "费用": 10954,
      "Art": 10955,
      "lit": 10956,
      "deb": 10957,
      "Arab": 10958,
      "issue": 10959,
      "org": 10960,
      "2004年": 10961,
      "vari": 10962,
      "termin": 10963,
      "consideration": 10964,
      "时候": 10965,
      "encies": 10966,
      "compl": 10967,
      "irl": 10968,
      "投资": 10969,
      "具有": 10970,
      "body": 10971,
      "mor": 10972,
      "2006年": 10973,
      "ins": 10974,
      "institutions": 10975,
      "pay": 10976,
      "framework": 10977,
      "tell": 10978,
      "nor": 10979,
      "position": 10980,
      "》，": 10981,
      "61": 10982,
      "needs": 10983,
      "并且": 10984,
      "much": 10985,
      "Dis": 10986,
      "contribution": 10987,
      "ages": 10988,
      "trade": 10989,
      "Palestin": 10990,
      "hand": 10991,
      "如何": 10992,
      "法庭": 10993,
      "mark": 10994,
      "major": 10995,
      "prove": 10996,
      "ES": 10997,
      "ged": 10998,
      "Just": 10999,
      "Cent": 11000,
      "非常": 11001,
      "question": 11002,
      "改革": 11003,
      "ale": 11004,
      "keeping": 11005,
      "地位": 11006,
      "istan": 11007,
      "acts": 11008,
      "war": 11009,
      "形式": 11010,
      "para": 11011,
      "nments": 11012,
      "encoura": 11013,
      "Law": 11014,
      "非政府": 11015,
      "7月": 11016,
      "伊拉克": 11017,
      "fully": 11018,
      "ivid": 11019,
      "note": 11020,
      "Me": 11021,
      "），": 11022,
      "exper": 11023,
      "Board": 11024,
      "武装": 11025,
      "ateral": 11026,
      "人道主义": 11027,
      "产生": 11028,
      "gen": 11029,
      "Cour": 11030,
      "stud": 11031,
      "key": 11032,
      "Oc": 11033,
      "ways": 11034,
      "fer": 11035,
      "aren": 11036,
      "uck": 11037,
      "Working": 11038,
      "安排": 11039,
      "milit": 11040,
      "condition": 11041,
      "July": 11042,
      "groups": 11043,
      "重申": 11044,
      "delegation": 11045,
      "TA": 11046,
      "spe": 11047,
      "预防": 11048,
      "partment": 11049,
      "four": 11050,
      "iation": 11051,
      "之间的": 11052,
      "National": 11053,
      "point": 11054,
      "帮助": 11055,
      "大的": 11056,
      "ake": 11057,
      "部长": 11058,
      "importance": 11059,
      "list": 11060,
      "ope": 11061,
      "比亚": 11062,
      "一种": 11063,
      "好的": 11064,
      "girl": 11065,
      "sm": 11066,
      "ived": 11067,
      "play": 11068,
      "Fund": 11069,
      "ilateral": 11070,
      "Reg": 11071,
      "受到": 11072,
      "suc": 11073,
      "种族": 11074,
      "监测": 11075,
      "我想": 11076,
      "谈判": 11077,
      "clear": 11078,
      "include": 11079,
      "available": 11080,
      "两个": 11081,
      "cept": 11082,
      "benef": 11083,
      "IV": 11084,
      "Don": 11085,
      "积极": 11086,
      "Ira": 11087,
      "各种": 11088,
      "lim": 11089,
      "提出的": 11090,
      "concerned": 11091,
      "2007年": 11092,
      "char": 11093,
      "half": 11094,
      "ital": 11095,
      "Iraq": 11096,
      "adv": 11097,
      "control": 11098,
      "mult": 11099,
      "Can": 11100,
      "tem": 11101,
      "humanitarian": 11102,
      "之前": 11103,
      "国家的": 11104,
      "resolutions": 11105,
      "light": 11106,
      "涉及": 11107,
      "annex": 11108,
      "一切": 11109,
      "sector": 11110,
      "还有": 11111,
      "Ho": 11112,
      "nat": 11113,
      "legisl": 11114,
      "国内": 11115,
      "usion": 11116,
      "allen": 11117,
      "Court": 11118,
      "非政府组织": 11119,
      "uture": 11120,
      "happ": 11121,
      "meetings": 11122,
      "pover": 11123,
      "portun": 11124,
      "policies": 11125,
      "实际": 11126,
      "cult": 11127,
      "grow": 11128,
      "increase": 11129,
      "specific": 11130,
      "告诉": 11131,
      "reduc": 11132,
      "性别": 11133,
      "Sub": 11134,
      "CC": 11135,
      "never": 11136,
      "differen": 11137,
      "conduc": 11138,
      "South": 11139,
      "hold": 11140,
      "understand": 11141,
      "cases": 11142,
      "arma": 11143,
      "Cr": 11144,
      "当局": 11145,
      "Union": 11146,
      "协商": 11147,
      "国的": 11148,
      "银行": 11149,
      "poverty": 11150,
      "chool": 11151,
      "means": 11152,
      "recent": 11153,
      "ined": 11154,
      "iness": 11155,
      "line": 11156,
      "有关的": 11157,
      "Af": 11158,
      "DP": 11159,
      "reach": 11160,
      "Action": 11161,
      "之后": 11162,
      "better": 11163,
      "taking": 11164,
      "uge": 11165,
      "particularly": 11166,
      "Sep": 11167,
      "委员会的": 11168,
      "erc": 11169,
      "idered": 11170,
      "area": 11171,
      "result": 11172,
      "ceed": 11173,
      "considered": 11174,
      "wish": 11175,
      "批准": 11176,
      "jects": 11177,
      "achieve": 11178,
      "tember": 11179,
      "manent": 11180,
      "Hey": 11181,
      "September": 11182,
      "mean": 11183,
      "公共": 11184,
      "履行": 11185,
      "local": 11186,
      "focus": 11187,
      "ividual": 11188,
      "一般": 11189,
      "一次": 11190,
      "来的": 11191,
      "future": 11192,
      "尽管": 11193,
      "9月": 11194,
      "独立": 11195,
      "生产": 11196,
      "sequ": 11197,
      "continued": 11198,
      "appe": 11199,
      "优先": 11200,
      "acy": 11201,
      "pris": 11202,
      "我要": 11203,
      "Article": 11204,
      "我是": 11205,
      "Women": 11206,
      "IN": 11207,
      "weapons": 11208,
      "挑战": 11209,
      "Ind": 11210,
      "Come": 11211,
      "allow": 11212,
      "noted": 11213,
      "ided": 11214,
      "ecut": 11215,
      "例如": 11216,
      "记录": 11217,
      "improve": 11218,
      "terrorism": 11219,
      "El": 11220,
      "cup": 11221,
      "official": 11222,
      "teur": 11223,
      "上的": 11224,
      "Palestinian": 11225,
      "Jo": 11226,
      "atory": 11227,
      "不要": 11228,
      "Secretariat": 11229,
      "struct": 11230,
      "strateg": 11231,
      "ross": 11232,
      "选举": 11233,
      "tow": 11234,
      "armament": 11235,
      "communic": 11236,
      "……": 11237,
      "trib": 11238,
      "opportun": 11239,
      "proposed": 11240,
      "comb": 11241,
      "Declaration": 11242,
      "Sh": 11243,
      "porteur": 11244,
      "monitor": 11245,
      "data": 11246,
      "ove": 11247,
      "报告员": 11248,
      "fif": 11249,
      "given": 11250,
      "33": 11251,
      "Tra": 11252,
      "prevent": 11253,
      "esp": 11254,
      "amoun": 11255,
      "ences": 11256,
      "strengthen": 11257,
      "临时": 11258,
      "Protocol": 11259,
      "society": 11260,
      "vol": 11261,
      "promote": 11262,
      "一起": 11263,
      "open": 11264,
      "subst": 11265,
      "性的": 11266,
      "成果": 11267,
      "individual": 11268,
      "所以": 11269,
      "11月": 11270,
      "stru": 11271,
      "我们的": 11272,
      "完成": 11273,
      "High": 11274,
      "他們": 11275,
      "nership": 11276,
      "最近": 11277,
      "197": 11278,
      "func": 11279,
      "net": 11280,
      "Nove": 11281,
      "议程项目": 11282,
      "November": 11283,
      "Report": 11284,
      "submitted": 11285,
      "警察": 11286,
      "eria": 11287,
      "term": 11288,
      "举行的": 11289,
      "打击": 11290,
      "preh": 11291,
      "Sup": 11292,
      "设施": 11293,
      "两年": 11294,
      "”.": 11295,
      "ify": 11296,
      "participation": 11297,
      "Par": 11298,
      "Ter": 11299,
      "结束": 11300,
      "Ok": 11301,
      "控制": 11302,
      "mocratic": 11303,
      "1997": 11304,
      "10月": 11305,
      "something": 11306,
      "really": 11307,
      "With": 11308,
      "利益": 11309,
      "ath": 11310,
      "54": 11311,
      "非法": 11312,
      "military": 11313,
      "administr": 11314,
      "立法": 11315,
      "集团": 11316,
      "领导": 11317,
      "month": 11318,
      "pose": 11319,
      "determin": 11320,
      "Governments": 11321,
      "金融": 11322,
      "一直": 11323,
      "军事": 11324,
      "idence": 11325,
      "在其": 11326,
      "igr": 11327,
      "财政": 11328,
      "challen": 11329,
      "监督": 11330,
      "might": 11331,
      "Yes": 11332,
      "刑事": 11333,
      "首脑": 11334,
      "truc": 11335,
      "developed": 11336,
      "呼吁": 11337,
      "Rap": 11338,
      "little": 11339,
      "市场": 11340,
      "ption": 11341,
      "tober": 11342,
      "project": 11343,
      "关注": 11344,
[...]
